{"<s>":0,"<pad>":1,"</s>":2,"!":3,"\"":4,"#":5,"$":6,"%":7,"&":8,"'":9,"(":10,")":11,"*":12,"+":13,",":14,"-":15,".":16,"/":17,"0":18,"1":19,"2":20,"3":21,"4":22,"5":23,"6":24,"7":25,"8":26,"9":27,":":28,";":29,"<":30,"=":31,">":32,"?":33,"@":34,"A":35,"B":36,"C":37,"D":38,"E":39,"F":40,"G":41,"H":42,"I":43,"J":44,"K":45,"L":46,"M":47,"N":48,"O":49,"P":50,"Q":51,"R":52,"S":53,"T":54,"U":55,"V":56,"W":57,"X":58,"Y":59,"Z":60,"[":61,"\\":62,"]":63,"^":64,"_":65,"`":66,"a":67,"b":68,"c":69,"d":70,"e":71,"f":72,"g":73,"h":74,"i":75,"j":76,"k":77,"l":78,"m":79,"n":80,"o":81,"p":82,"q":83,"r":84,"s":85,"t":86,"u":87,"v":88,"w":89,"x":90,"y":91,"z":92,"{":93,"|":94,"}":95,"~":96,"¡":97,"¢":98,"£":99,"¤":100,"¥":101,"¦":102,"§":103,"¨":104,"©":105,"ª":106,"«":107,"¬":108,"®":109,"¯":110,"°":111,"±":112,"²":113,"³":114,"´":115,"µ":116,"¶":117,"·":118,"¸":119,"¹":120,"º":121,"»":122,"¼":123,"½":124,"¾":125,"¿":126,"À":127,"Á":128,"Â":129,"Ã":130,"Ä":131,"Å":132,"Æ":133,"Ç":134,"È":135,"É":136,"Ê":137,"Ë":138,"Ì":139,"Í":140,"Î":141,"Ï":142,"Ð":143,"Ñ":144,"Ò":145,"Ó":146,"Ô":147,"Õ":148,"Ö":149,"×":150,"Ø":151,"Ù":152,"Ú":153,"Û":154,"Ü":155,"Ý":156,"Þ":157,"ß":158,"à":159,"á":160,"â":161,"ã":162,"ä":163,"å":164,"æ":165,"ç":166,"è":167,"é":168,"ê":169,"ë":170,"ì":171,"í":172,"î":173,"ï":174,"ð":175,"ñ":176,"ò":177,"ó":178,"ô":179,"õ":180,"ö":181,"÷":182,"ø":183,"ù":184,"ú":185,"û":186,"ü":187,"ý":188,"þ":189,"ÿ":190,"Ā":191,"ā":192,"Ă":193,"ă":194,"Ą":195,"ą":196,"Ć":197,"ć":198,"Ĉ":199,"ĉ":200,"Ċ":201,"ċ":202,"Č":203,"č":204,"Ď":205,"ď":206,"Đ":207,"đ":208,"Ē":209,"ē":210,"Ĕ":211,"ĕ":212,"Ė":213,"ė":214,"Ę":215,"ę":216,"Ě":217,"ě":218,"Ĝ":219,"ĝ":220,"Ğ":221,"ğ":222,"Ġ":223,"ġ":224,"Ģ":225,"ģ":226,"Ĥ":227,"ĥ":228,"Ħ":229,"ħ":230,"Ĩ":231,"ĩ":232,"Ī":233,"ī":234,"Ĭ":235,"ĭ":236,"Į":237,"į":238,"İ":239,"ı":240,"Ĳ":241,"ĳ":242,"Ĵ":243,"ĵ":244,"Ķ":245,"ķ":246,"ĸ":247,"Ĺ":248,"ĺ":249,"Ļ":250,"ļ":251,"Ľ":252,"ľ":253,"Ŀ":254,"ŀ":255,"Ł":256,"ł":257,"Ń":258,"ar":259,"Ġ)":260,"Ġ(":261,"Var":262,"Ġ;":263,"Ġ*":264,"Ġ=":265,"Ġp":266,"Ġi":267,"Ġu":268,"Ġ0":269,"Ġ,":270,"lo":271,"am":272,"in":273,"aram":274,"Ġ+":275,"ca":276,"loca":277,"local":278,"Ġparam":279,"de":280,"ĠiVar":281,"nt":282,"Ġlocal":283,"ĠuVar":284,"08":285,"Ġint":286,"ed":287,"Ġun":288,"fin":289,"Ġ{":290,"Ġ}":291,"defin":292,"defined":293,"Ġundefined":294,"uVar":295,"080":296,"Ġ-":297,"ff":298,"Ġif":299,"ch":300,"cVar":301,"ĠpuVar":302,"char":303,"ĠF":304,"re":305,"UN":306,"ĠFUN":307,"st":308,"10":309,"Ġb":310,"Ġ**":311,"Ġ&":312,"Ġ\"":313,"int":314,"Ġ==":315,"00":316,"Ġ!":317,"Ġchar":318,"Ġ!=":319,"se":320,"iVar":321,"Ġe":322,"Ġ1":323,"AT":324,"or":325,"Ġuint":326,"tr":327,"ĠpcVar":328,"DAT":329,"14":330,"Ġpp":331,"::":332,"Ġre":333,"0804":334,"rn":335,"20":336,"tu":337,"ou":338,"__":339,"turn":340,"Ġreturn":341,"Ġst":342,"0805":343,"te":344,"11":345,"id":346,"param":347,"Ġ<":348,"tra":349,"le":350,"Ġf":351,"Ġv":352,"pp":353,"ac":354,"ĠL":355,"ffff":356,"oid":357,"AB":358,"ĠDAT":359,"Ġvoid":360,"ĠLAB":361,"out":362,"ĠbVar":363,"Ġ__":364,"to":365,"Ġstd":366,"ĠpiVar":367,">>":368,"12":369,"Ġa":370,"čĊ":371,"18":372,"xtra":373,"xtraout":374,"13":375,"24":376,"80":377,"si":378,"ack":379,"Ġextraout":380,"Ġg":381,"lse":382,"er":383,"co":384,"Ġ4":385,"it":386,"Ġelse":387,"ng":388,"xc":389,"ing":390,"Ġs":391,"Ġgo":392,"0806":393,"St":394,"Ġgoto":395,"al":396,"Stack":397,"Ġd":398,"EC":399,"**":400,"long":401,"ECX":402,"Ġ|":403,"puVar":404,"at":405,"Ġ'":406,"on":407,"Ġ%":408,"30":409,"Ġ>>":410,"yte":411,"34":412,"15":413,"28":414,"Ġbyte":415,"16":416,"ĠcVar":417,"str":418,"Ġ2":419,"bVar":420,"ba":421,"Ġ'\\":422,"ĠppcVar":423,"Ġw":424,"Ġ[":425,"Ġ8":426,"ile":427,"sic":428,"ti":429,"Ġco":430,"17":431,"string":432,"piVar":433,"Ġ&&":434,"ED":435,"44":436,"rea":437,"19":438,"tor":439,"40":440,"xffff":441,"pcVar":442,"Ġfor":443,"38":444,"ec":445,"Ġwh":446,"Ġcode":447,"Ġwhile":448,"et":449,"ĠpbVar":450,"ort":451,"op":452,"50":453,"0807":454,"ble":455,"tion":456,"ue":457,"0808":458,"vVar":459,"Ġ_":460,"ĠppiVar":461,"nd":462,"rr":463,"its":464,"cx":465,"Ġl":466,"64":467,"alloca":468,"th":469,"traits":470,"EDX":471,"22":472,"Ġ||":473,"no":474,"48":475,"basic":476,"ĠauVar":477,"54":478,"sh":479,"rint":480,"reak":481,"Ġbreak":482,"ad":483,"longlong":484,"allocator":485,"me":486,"Ġ3":487,"ree":488,"ro":489,"60":490,"ĠC":491,"._":492,"ce":493,"000":494,"::__":495,"rintf":496,"aff":497,"cxx":498,"21":499,"mp":500,"ĠsVar":501,"27":502,"25":503,"ouble":504,"ĠlVar":505,"ĠpvVar":506,">>::":507,"08049":508,"xffffffff":509,"23":510,"PT":511,"case":512,"68":513,"il":514,"Ġunaff":515,"Ġ^":516,"li":517,"Ġdo":518,"is":519,"uStack":520,"Ġba":521,"LE":522,"Ġpppp":523,"\\'":524,"Ġulonglong":525,"Ġtr":526,"Ġin":527,"ĠppuVar":528,"rc":529,"58":530,"Ġbasic":531,"PTR":532,"FVar":533,"par":534,"804":535,"as":536,"Ġ****":537,"Ġtrue":538,"ILE":539,"loc":540,"ĠFILE":541,"ut":542,"Ġ<<":543,"un":544,"90":545,"70":546,"ser":547,"26":548,"bc":549,"Ġcase":550,"Ġ10":551,"printf":552,"ON":553,"reg":554,"74":555,"78":556,"Ġ***":557,"Ġm":558,"98":559,"ĠpFVar":560,"94":561,"ator":562,"ptr":563,"805":564,"oper":565,"0000":566,"ĠdVar":567,"fa":568,"Ġdouble":569,"parm":570,"regparm":571,"08048":572,"ze":573,"ream":574,"xf":575,"->":576,"get":577,"operator":578,"ol":579,"short":580,"Ġc":581,"Ġ<=":582,"set":583,"ĠCON":584,"CAT":585,"po":586,"01":587,"ĠCONCAT":588,"ge":589,"Ġq":590,"ri":591,"02":592,"fe":593,"31":594,"32":595,"fc":596,"Ġushort":597,"Ġ\"%":598,"ne":599,"EDI":600,"log":601,"Ġsh":602,"base":603,"size":604,"ve":605,"\\\"":606,"cStack":607,"stream":608,"29":609,"bu":610,"Ġ******":611,"dc":612,"en":613,"ĠauStack":614,"Ġ6":615,"Ġpppppp":616,"cc":617,"xb":618,"rror":619,"ll":620,"yp":621,"36":622,"Ġ5":623,"ss":624,"xffffff":625,"84":626,"put":627,"0813":628,"Ġqh":629,"0814":630,"Ġto":631,"Ġno":632,"be":633,"ĠPTR":634,"Ġfa":635,"Ġshort":636,"100":637,"read":638,"55":639,"Ġ7":640,"ma":641,"33":642,"Ġfree":643,">>::_":644,"ĠuStack":645,"iled":646,"dis":647,"ppcVar":648,"ĠfVar":649,"fd":650,"04":651,"art":652,"end":653,"xe":654,"iStack":655,"an":656,"ab":657,"88":658,"ame":659,"xff":660,"pose":661,"Ġ~":662,"35":663,"0809":664,"Ġbo":665,"di":666,"derr":667,"aa":668,"xd":669,"Ġtor":670,"dispose":671,"add":672,"Ġap":673,"gn":674,"Ġth":675,"test":676,"Ġbool":677,"able":678,"ate":679,"39":680,"lock":681,"Ġnot":682,"loat":683,"ex":684,"Ġstr":685,"37":686,"->_":687,"IO":688,"asser":689,"stack":690,"ter":691,"Ġfloat":692,"Ġstderr":693,"ver":694,"ES":695,"08050":696,"Ġh":697,"pbVar":698,"la":699,"Ġlong":700,"con":701,"up":702,"Ġop":703,"mu":704,"Ġstrc":705,"Ġsize":706,"Ġat":707,"ke":708,"ppiVar":709,"ĠS":710,"mo":711,"bb":712,"lu":713,"node":714,"ck":715,"ae":716,"val":717,"time":718,"08056":719,"mem":720,"Ġfprintf":721,"src":722,"thread":723,"Ġ\\'":724,"Ġo":725,"##":726,"tex":727,"ĠE":728,"ĠP":729,"dd":730,"ra":731,"double":732,"99":733,"ata":734,"Ġ*__":735,"Ġprintf":736,"extraout":737,"fo":738,"name":739,"56":740,"ea":741,"tree":742,"42":743,"Ġstrcmp":744,"ion":745,"41":746,"Ġlongdouble":747,"free":748,"In":749,"ct":750,"new":751,"rite":752,"Ġoperator":753,"66":754,"alloc":755,"fi":756,"ostream":757,"Ġex":758,"ĠN":759,"Rb":760,"ld":761,"su":762,"Ġpthread":763,"list":764,"Ġfput":765,"rno":766,"dVar":767,"Ġt":768,"Ġerr":769,"[-":770,"bd":771,"eck":772,"Ġ9":773,"err":774,"--":775,"03":776,"Ġis":777,"std":778,"location":779,"ist":780,"53":781,"ect":782,"Ġde":783,"47":784,"cxa":785,"sp":786,"sVar":787,"AR":788,"46":789,"bf":790,"ur":791,"errno":792,"sign":793,"Ġlog":794,"sion":795,"806":796,"ent":797,"ype":798,"76":799,"assertion":800,"IN":801,"da":802,"ppend":803,"08058":804,"Ġ\\\"":805,"ee":806,"Ġ*******":807,"mat":808,"52":809,"check":810,"and":811,"Ġ/":812,"file":813,"ep":814,"59":815,"for":816,"ESI":817,"fb":818,"ĠapcStack":819,"ppuVar":820,"mutex":821,"write":822,"Ġerror":823,"Ġn":824,"200":825,"57":826,"Ġfalse":827,"xa":828,"08057":829,"buf":830,"Ġfailed":831,"age":832,"06":833,"45":834,"Ġof":835,"Ġlonglong":836,"49":837,"43":838,"<<":839,"09":840,"FUN":841,"lt":842,"es":843,"081":844,"ĠT":845,"um":846,"ffer":847,"af":848,"start":849,"Ġget":850,"ryp":851,"arg":852,"08059":853,"atu":854,"ĠpdVar":855,"lete":856,"ef":857,".\"":858,"kit":859,"083":860,"cd":861,"51":862,"ĠpppiVar":863,"can":864,"Ġthe":865,"og":866,"Ġfputs":867,"key":868,"Ġ\\'%":869,"RY":870,"vn":871,"pro":872,"Ġmem":873,"wit":874,"Ġab":875,"ĠB":876,"fn":877,"08053":878,"ER":879,"07":880,"error":881,"que":882,"cess":883,"69":884,"Re":885,"ms":886,"vi":887,"08055":888,"ock":889,"cmp":890,"db":891,"Ġse":892,"65":893,"62":894,"05":895,"ta":896,"Ġr":897,"ĠppvVar":898,"ment":899,"lose":900,"Ġ\"\\":901,"lin":902,"df":903,"=%":904,"code":905,"rom":906,"Ġ:":907,"ation":908,"xcep":909,"67":910,"delete":911,"0000000":912,"..":913,"ARRY":914,"xception":915,"eb":916,"pc":917,"Ġ\\":918,"0827":919,"ĠCARRY":920,"Ġpro":921,"py":922,"ĠpsVar":923,"Ġcon":924,"EB":925,"ffffff":926,"cf":927,"init":928,"fVar":929,"Ġfile":930,"08089":931,"Ġsvn":932,"cb":933,"Ġtime":934,"ĠppbVar":935,"08052":936,"pvVar":937,"ĠpcStack":938,"Ġbe":939,"witch":940,"08051":941,"uffer":942,"Co":943,"Ġabort":944,"em":945,"reate":946,"dir":947,"failed":948,"valid":949,"len":950,"110":951,"73":952,"8049":953,"sc":954,"Ġswitch":955,"irc":956,"72":957,"ext":958,"08054":959,"ic":960,"108":961,"RO":962,"info":963,"###":964,"EBX":965,"UL":966,"ĠM":967,"61":968,"400":969,"ĠpppppppuVar":970,"082":971,"dup":972,"Ġ\"###":973,"fini":974,"79":975,"ull":976,"Ġput":977,"row":978,"append":979,"ap":980,"63":981,"ry":982,"ject":983,"ory":984,"Ġ--":985,".\\":986,"Ġdi":987,"08069":988,"Ġsu":989,"unc":990,"08068":991,"Ġsm":992,"ĠA":993,"77":994,"ould":995,"Ġ100":996,"fprintf":997,"ĠD":998,"Str":999,"addr":1000,"gr":1001,"tions":1002,"lag":1003,"do":1004,"71":1005,"artlist":1006,"der":1007,"ĠpppuVar":1008,"table":1009,"DT":1010,"he":1011,"ith":1012,"format":1013,"throw":1014,"com":1015,"ULL":1016,"ĠpppppiVar":1017,"rec":1018,"81":1019,"ash":1020,"Ġsmartlist":1021,"Ġread":1022,"msg":1023,"ntext":1024,":%":1025,"vent":1026,"Ġset":1027,"104":1028,"140":1029,"Ġon":1030,"000000":1031,"Ġopt":1032,"stdout":1033,"rent":1034,"96":1035,"120":1036,"ir":1037,"134":1038,"ection":1039,"rypto":1040,"Ġout":1041,"che":1042,"124":1043,"Ġch":1044,"ĠNULL":1045,"SE":1046,"92":1047,"Ġ********":1048,"Ġ\\\"%":1049,"exception":1050,"bject":1051,"bug":1052,"ls":1053,"128":1054,"allocate":1055,"ĠpfVar":1056,"unlock":1057,"114":1058,"ly":1059,"ip":1060,"map":1061,"andle":1062,"ircu":1063,"Ġputs":1064,"sec":1065,"ild":1066,"ĠU":1067,"ten":1068,"wn":1069,"75":1070,"sig":1071,"fs":1072,"attr":1073,"Buffer":1074,"ult":1075,"gest":1076,"800":1077,"fault":1078,"Ġor":1079,"vice":1080,"rerror":1081,"ĠX":1082,"nection":1083,"lib":1084,"qu":1085,"ber":1086,"86":1087,"Ġ*****":1088,"ath":1089,"ity":1090,"130":1091,"Ġwith":1092,"ssage":1093,"av":1094,"ace":1095,"144":1096,"du":1097,"open":1098,"08062":1099,"flag":1100,"IT":1101,"ĠBIO":1102,"Ex":1103,"Get":1104,"08060":1105,"Ġthis":1106,"ĠiStack":1107,"Ġexit":1108,"Ġ>":1109,"Ġstdout":1110,"OR":1111,"085":1112,"parse":1113,"lient":1114,"95":1115,"ĠI":1116,"Ġpg":1117,"pppp":1118,"Ġ\"\"":1119,"wor":1120,"1000":1121,"String":1122,"82":1123,"finish":1124,"res":1125,"::_":1126,"assert":1127,"Ġdata":1128,"Log":1129,"comp":1130,"ot":1131,"87":1132,"Ġz":1133,"dest":1134,"ircuit":1135,"move":1136,"not":1137,"type":1138,"91":1139,"255":1140,"ĠswitchD":1141,"caseD":1142,"Ġelog":1143,"ger":1144,"ount":1145,"ase":1146,"pu":1147,"unk":1148,"ind":1149,"nprintf":1150,"08061":1151,"93":1152,"ask":1153,"ĠpuStack":1154,"Ġstat":1155,"ress":1156,"ht":1157,"08064":1158,"Ġmalloc":1159,"are":1160,"ntry":1161,"chr":1162,"create":1163,"close":1164,"ns":1165,"Context":1166,"509":1167,"ay":1168,"alue":1169,"FF":1170,"cal":1171,"data":1172,"cell":1173,"180":1174,"ig":1175,"ature":1176,"rpc":1177,"Ġcrypto":1178,"Ġand":1179,"ĠError":1180,"118":1181,"97":1182,"ĠpppcVar":1183,":\"":1184,"pid":1185,"0810":1186,"83":1187,"08065":1188,"rip":1189,"fig":1190,"Ġfrom":1191,"hash":1192,"Ġappend":1193,"ĠO":1194,"us":1195,"ok":1196,"==":1197,"all":1198,"85":1199,"desc":1200,"ST":1201,"Ġstrerror":1202,"signal":1203,"atus":1204,"line":1205,"ys":1206,"emory":1207,"Init":1208,"138":1209,"----":1210,"Ġal":1211,"ĠppppuVar":1212,"ial":1213,"iz":1214,"urrent":1215,"arra":1216,"unlocked":1217,"nel":1218,"25519":1219,"ass":1220,"nge":1221,"8048":1222,"Ġ\"/":1223,"89":1224,"acket":1225,"Ġadd":1226,"150":1227,"Ġstrn":1228,"handle":1229,"Ġerrstart":1230,"cbb":1231,"hs":1232,"Ġac":1233,"array":1234,"ĠppppppppiVar":1235,"ust":1236,"io":1237,"sa":1238,"160":1239,"ound":1240,"xfffffffe":1241,"mask":1242,"tp":1243,"qh":1244,"08067":1245,"SET":1246,"GS":1247,"224":1248,"outer":1249,"uth":1250,"Ġatf":1251,"ched":1252,"min":1253,"Ġsnprintf":1254,"puStack":1255,"sing":1256,"ĠpiStack":1257,"Ġma":1258,"path":1259,"220":1260,"umber":1261,"point":1262,"0812":1263,"acet":1264,"fffffff":1265,"yn":1266,"el":1267,"piStack":1268,"AN":1269,"arn":1270,"xfffffff":1271,"08063":1272,"Ġprocess":1273,"if":1274,"client":1275,"sert":1276,"stat":1277,"lic":1278,"0818":1279,"message":1280,"rnal":1281,"Ġ\".":1282,"rypt":1283,"08066":1284,"Ġge":1285,"emoryContext":1286,"flags":1287,"CT":1288,"main":1289,"pcStack":1290,"lay":1291,"ĠR":1292,"Info":1293,"OT":1294,"low":1295,"ait":1296,"OFF":1297,"ifi":1298,"ĠppFVar":1299,"bo":1300,"Ġy":1301,"ty":1302,"Ġoptarg":1303,"gram":1304,"Ġfputc":1305,"Ġ\"!":1306,"find":1307,"ine":1308,"sub":1309,"value":1310,"ero":1311,"vtable":1312,"tv":1313,"OFFSET":1314,"ded":1315,"spec":1316,"101":1317,"UNK":1318,"158":1319,"Ġas":1320,"Exp":1321,"dex":1322,"tVar":1323,"Ġmo":1324,"ple":1325,"ĠaiStack":1326,"from":1327,"load":1328,"IR":1329,"08131":1330,"Ġopen":1331,"EN":1332,"oint":1333,"ĠW":1334,"Ġexp":1335,"Ġ>=":1336,"5555":1337,"pFVar":1338,"148":1339,"807":1340,"ts":1341,"Ġsig":1342,"2000":1343,"deta":1344,"ho":1345,"status":1346,"Ġav":1347,"work":1348,"08100":1349,"mon":1350,"cache":1351,"ngth":1352,"feature":1353,"ID":1354,"ill":1355,"198":1356,"De":1357,"call":1358,"cp":1359,"174":1360,"Object":1361,"Ġvalue":1362,"PL":1363,"Ġ.":1364,"AL":1365,"service":1366,"019":1367,"unaff":1368,"lease":1369,"ark":1370,"ard":1371,"mer":1372,"ain":1373,"ernal":1374,"194":1375,"154":1376,"our":1377,"Ġdefault":1378,"atch":1379,"Error":1380,"08074":1381,"Ġ]":1382,"mand":1383,"ref":1384,"Ġle":1385,"SL":1386,"ique":1387,"Ġcan":1388,"Ġclose":1389,"164":1390,"per":1391,"ize":1392,"170":1393,"ĠEV":1394,"eld":1395,"238":1396,"annel":1397,"184":1398,"link":1399,"options":1400,"detail":1401,"mit":1402,"ĠEVP":1403,"ĠpppppppiVar":1404,"gin":1405,"ected":1406,"state":1407,"ĠbStack":1408,"PQ":1409,"\\\"\"":1410,"back":1411,"178":1412,"xt":1413,"digest":1414,"sr":1415,"action":1416,"168":1417,"crypt":1418,"Ġtype":1419,"ĠLog":1420,"jo":1421,"rector":1422,"Ġsignal":1423,"ĠapiStack":1424,"686":1425,"ument":1426,"CK":1427,"fm":1428,"Ġen":1429,"cle":1430,"Ġsudo":1431,"Ġsock":1432,"ntro":1433,"Ġan":1434,"The":1435,"arch":1436,"244":1437,"dule":1438,"llu":1439,"func":1440,"08076":1441,"ast":1442,"ueue":1443,"var":1444,"ĠptVar":1445,"Un":1446,"print":1447,"rit":1448,"cond":1449,"riptor":1450,"As":1451,"pg":1452,"debug":1453,"248":1454,"server":1455,"rectory":1456,"sock":1457,"cer":1458,"port":1459,"date":1460,"ppvVar":1461,"Ġmemcmp":1462,"version":1463,"8000":1464,"Ġ1000":1465,"tenv":1466,"].":1467,"Ġerrmsg":1468,"Ġpacket":1469,"Ġver":1470,"iter":1471,"240":1472,"Ġstrdup":1473,"ĠPQ":1474,"etwork":1475,"ntrol":1476,"KE":1477,"188":1478,"420":1479,"est":1480,"084":1481,"ary":1482,"bStack":1483,"ul":1484,"UND":1485,"ExpBuffer":1486,"PQExpBuffer":1487,"sive":1488,"byte":1489,"lush":1490,"Ġconnection":1491,"mode":1492,"malloc":1493,"8050":1494,"md":1495,"thunk":1496,"nown":1497,"Ġqueue":1498,"pt":1499,"08072":1500,"ive":1501,"+=":1502,"086":1503,"Ġstrchr":1504,"pport":1505,"Ġhea":1506,"invalid":1507,"ROUND":1508,"Ġ&__":1509,"connection":1510,"cpy":1511,"ister":1512,"StringInfo":1513,"/%":1514,"lob":1515,".%":1516,"Ġkey":1517,"Ġsp":1518,"0811":1519,"fileno":1520,"CTX":1521,"//":1522,"of":1523,"one":1524,"GOT":1525,"http":1526,"PLT":1527,"fput":1528,"080512":1529,"190":1530,"Data":1531,"204":1532,"091":1533,"xit":1534,"ture":1535,"PLTGOT":1536,"rel":1537,"fputc":1538,"808":1539,"core":1540,"PD":1541,"cate":1542,"08080":1543,"uti":1544,"encode":1545,"KEY":1546,"PU":1547,"Ġstream":1548,"ĠpppppuVar":1549,"join":1550,"avx":1551,"MemoryContext":1552,"bus":1553,"102":1554,"Ġevent":1555,"ĠCurrent":1556,"rame":1557,"exp":1558,"Ġk":1559,"Ġentry":1560,"oup":1561,"214":1562,"Ġlist":1563,"Ġfi":1564,"230":1565,"08079":1566,"Ġname":1567,"Ġ\"-":1568,"copy":1569,"strdup":1570,"][":1571,"Ġwas":1572,"by":1573,"config":1574,"40000000":1575,"event":1576,"Ġol":1577,"ME":1578,"intro":1579,"ursive":1580,"Ġstrncmp":1581,"mock":1582,"pl":1583,"INIT":1584,"circuit":1585,"pdVar":1586,"cat":1587,"Ġcomp":1588,"://":1589,"met":1590,"08073":1591,"pre":1592,"Ġ\":\"":1593,"ouldn":1594,"stderr":1595,"Ġulong":1596,"ĠNAN":1597,"fff":1598,"Ġcircuit":1599,"/\"":1600,"pfm":1601,"temp":1602,"Ġoption":1603,"Ġpar":1604,"proc":1605,"ify":1606,"pack":1607,"ĠROUND":1608,"ĠUn":1609,"mark":1610,"210":1611,"count":1612,"quest":1613,"ĠCurrentMemoryContext":1614,"234":1615,"0001":1616,"libc":1617,"assign":1618,"xec":1619,"LO":1620,"build":1621,"Ġtoo":1622,"No":1623,"stro":1624,"xfe":1625,"ved":1626,"sen":1627,"Ġoptind":1628,"led":1629,"4000":1630,"ĠLogger":1631,"exit":1632,"ĠappendStringInfo":1633,"range":1634,"Ġnumber":1635,"space":1636,"CS":1637,"sed":1638,"Ġbytes":1639,"stru":1640,"Ġ->":1641,"next":1642,"cre":1643,"ĠppppppuVar":1644,"Ġx":1645,"/'":1646,"common":1647,"UB":1648,"ule":1649,"08070":1650,"08075":1651,"bx":1652,"256":1653,"ailed":1654,"uid":1655,"num":1656,"CO":1657,"tok":1658,"208":1659,"om":1660,"RE":1661,"Ġ'/'":1662,"::~":1663,"ĠH":1664,"ĠRe":1665,"argument":1666,"ĠQ":1667,"match":1668,"unique":1669,"Ch":1670,"EX":1671,"080511":1672,"xac":1673,"Ġ[-":1674,"080504":1675,"zero":1676,"ime":1677,"use":1678,"ated":1679,"Ġmatch":1680,"Ġtest":1681,"Ġoutput":1682,"dent":1683,"ĠtVar":1684,"00000004":1685,"228":1686,"Entry":1687,"ĠppiStack":1688,"ctype":1689,"son":1690,"yst":1691,"Ġhas":1692,"ource":1693,"ction":1694,"Ġcom":1695,"ding":1696,"Ġcheck":1697,"cation":1698,"arning":1699,"stroy":1700,"lobal":1701,"Ġinput":1702,"Ġrouter":1703,"raw":1704,"xbc":1705,"ire":1706,"calloc":1707,"ave":1708,"258":1709,"conn":1710,"buffer":1711,"Ke":1712,"ĠSUB":1713,"eter":1714,"cert":1715,":\\":1716,"00000":1717,"10000":1718,"text":1719,"105":1720,"idge":1721,"List":1722,"const":1723,"268":1724,"Ġ%.":1725,"080490":1726,"rand":1727,"Ġerrfinish":1728,"casecmp":1729,"conf":1730,"264":1731,"sensu":1732,"MP":1733,"ub":1734,"Ġbut":1735,"Ġgetenv":1736,"Key":1737,"lot":1738,"lation":1739,"Ġreading":1740,"Ġstart":1741,"tc":1742,"qhull":1743,"abled":1744,"En":1745,"sensus":1746,"nce":1747,"ang":1748,"pa":1749,"Ġolsr":1750,"Ġpoint":1751,"ses":1752,"ition":1753,"handler":1754,"ION":1755,"Ġ\"./":1756,"Ġpl":1757,"clear":1758,"pe":1759,"254":1760,"File":1761,"med":1762,"Ġprogram":1763,"IG":1764,"PDF":1765,"Ġed":1766,"Ġerrcode":1767,"module":1768,"Ġfield":1769,"====":1770,"PKEY":1771,"Lock":1772,"Ġrea":1773,"shortbuf":1774,"ĠAS":1775,"UM":1776,"Pro":1777,"DE":1778,"Ġvp":1779,"008":1780,"300":1781,"ache":1782,"ĠV":1783,"Ġwrite":1784,"08078":1785,"Ġ200":1786,"tm":1787,"Ġfunc":1788,"endl":1789,"mpty":1790,"Ġne":1791,"Ġapr":1792,"FIN":1793,"Ġline":1794,"Id":1795,"ord":1796,"ure":1797,"ner":1798,"Ġbu":1799,"bytes":1800,"Ġfclose":1801,"Ġdirectory":1802,"250":1803,"Ġstrcpy":1804,"lus":1805,"Me":1806,"abc":1807,"08085":1808,"Ġapp":1809,"Ġspec":1810,"this":1811,"XVar":1812,"Ġformat":1813,"Ġ\"<":1814,"Ġinvalid":1815,"uard":1816,"def":1817,"Ġmemory":1818,"ntain":1819,"fbc":1820,"ers":1821,"8054":1822,"ĠSSL":1823,"Exception":1824,"Ġfind":1825,"ĠppuStack":1826,"Ġnetwork":1827,"080498":1828,"qual":1829,"recursive":1830,"insert":1831,"fffff":1832,"106":1833,"rend":1834,"fail":1835,"AC":1836,"Op":1837,"FINI":1838,"vel":1839,"tls":1840,"ĠappendPQExpBuffer":1841,"Ġau":1842,"Set":1843,"Can":1844,"scan":1845,"sha":1846,"ĠppsVar":1847,"ous":1848,"For":1849,"430":1850,"coding":1851,"xcc":1852,"Ġsprintf":1853,"ix":1854,"ener":1855,"auth":1856,"Ġby":1857,"ctl":1858,"440":1859,"process":1860,"wd":1861,"\\'\\":1862,"EG":1863,"global":1864,"mpl":1865,"hel":1866,"ĠplVar":1867,"Ġsnd":1868,"tag":1869,"option":1870,"pdate":1871,"index":1872,"Ġfacet":1873,"Ġ\"[":1874,"Ġnode":1875,"cplus":1876,"Failed":1877,"Cache":1878,"default":1879,"080625":1880,"Ġoptions":1881,"284":1882,"Ġare":1883,"--------":1884,"ail":1885,"Invalid":1886,"verity":1887,"ign":1888,"Ġdoes":1889,"max":1890,"ink":1891,"080496":1892,"licy":1893,"severity":1894,"Ġinternal":1895,"uC":1896,"uClibc":1897,"ance":1898,"ag":1899,"psVar":1900,"080500":1901,"ant":1902,"080514":1903,"Ġpalloc":1904,"sk":1905,"locate":1906,"Ġfound":1907,"Ġargument":1908,"uple":1909,"270":1910,">\"":1911,"Ġcreate":1912,"wVar":1913,"gid":1914,"ĠprocessEntry":1915,"ization":1916,"0819":1917,"294":1918,"SA":1919,"080517":1920,"igh":1921,"ĠpXVar":1922,"080532":1923,"ret":1924,"080499":1925,"080515":1926,"ting":1927,"Ġmust":1928,"exec":1929,"ized":1930,"pppppp":1931,"cap":1932,"Ġdigest":1933,"arri":1934,"entry":1935,"ek":1936,"wait":1937,"200000":1938,"word":1939,"019140":1940,"Ġato":1941,"Ġstring":1942,"pported":1943,"mal":1944,"run":1945,"off":1946,"Ġconfig":1947,"pfmlib":1948,"ROR":1949,"riv":1950,"Ġlength":1951,"known":1952,"ING":1953,"ipe":1954,"ĠUnable":1955,"260":1956,"Ġit":1957,"424":1958,"080518":1959,"xfffffffc":1960,"1234":1961,"opt":1962,"080493":1963,"issing":1964,"280":1965,"router":1966,"278":1967,"br":1968,"288":1969,"part":1970,"444":1971,"ĠG":1972,"XX":1973,"apcStack":1974,"Ġmax":1975,"...":1976,">>>":1977,"ost":1978,"sage":1979,"address":1980,"Ġnew":1981,"Ġdesc":1982,"bad":1983,"destroy":1984,"080495":1985,"cannot":1986,"0826":1987,"push":1988,"103":1989,"Message":1990,"tou":1991,"080494":1992,"249":1993,"facet":1994,"Ġcalloc":1995,"nter":1996,"Ġchannel":1997,"Ġzle":1998,"ym":1999,"sult":2000,"arrier":2001,"user":2002,"080622":2003,"ystem":2004,"Ġchild":2005,"length":2006,"Ġff":2007,"Ġuse":2008,"5678":2009,"xfff":2010,"hull":2011,"Ġinit":2012,"08098":2013,"register":2014,"FStack":2015,"ado":2016,"EXT":2017,"pk":2018,"0815":2019,"rep":2020,"Ġrealloc":2021,"dirp":2022,"Ġaf":2023,"chan":2024,"ABLE":2025,"ront":2026,"017":2027,"object":2028,"alid":2029,"limit":2030,"argv":2031,"look":2032,"08084":2033,"Ġstrcasecmp":2034,"sertion":2035,"ran":2036,"stringstream":2037,"adobe":2038,"ele":2039,"Ġunit":2040,"ĠppppppiVar":2041,"Ġhb":2042,"tem":2043,"descriptor":2044,"ia":2045,"memb":2046,"Ġpass":2047,"820":2048,"Ġreached":2049,"proto":2050,"ĠExec":2051,"12345678":2052,"Ġcpu":2053,"Ġallocate":2054,"Ġfflush":2055,"ange":2056,"Ġli":2057,"809":2058,"timer":2059,"spi":2060,"-'":2061,"Ġj":2062,"Ġ\"--":2063,">\\":2064,"Ġversion":2065,"Ġ'-'":2066,"ted":2067,"wchar":2068,"tuple":2069,"8058":2070,"getThe":2071,"PER":2072,"getTheLog":2073,"]\\":2074,"Ġonly":2075,"ĠTS":2076,"CON":2077,"red":2078,"pping":2079,"ified":2080,"374":2081,"Ġheader":2082,"front":2083,"08077":2084,"cted":2085,"merge":2086,"Ġ\"_":2087,"274":2088,"080497":2089,"org":2090,"8056":2091,"dio":2092,"Ġsigaction":2093,":'":2094,"ECT":2095,"roup":2096,"ctx":2097,"434":2098,"Ġsys":2099,"xffffffc":2100,"channel":2101,"llx":2102,"Al":2103,"pfVar":2104,"0817":2105,"Ġrec":2106,"crypto":2107,"lugin":2108,"Ġ':'":2109,"queue":2110,"Ġtra":2111,"080546":2112,"INT":2113,"ead":2114,"Ġ;\\":2115,"Block":2116,"lld":2117,"guard":2118,"VER":2119,"frame":2120,"Ġpfree":2121,"ĠpppppppiStack":2122,"Assertion":2123,"Ġmet":2124,"pmu":2125,"Ġpre":2126,"WLock":2127,"Ġumask":2128,"201":2129,"Ġshould":2130,"cmd":2131,"Ġfopen":2132,"Ġaddress":2133,"Ġkill":2134,"loop":2135,"ote":2136,"80000000":2137,"ector":2138,"Ġparameter":2139,"riting":2140,"Ġwait":2141,"utils":2142,"Con":2143,"ibu":2144,"344":2145,"Ġext":2146,"tx":2147,"ĠwVar":2148,"CLE":2149,"ĠppcStack":2150,"Ġwchar":2151,"8053":2152,"crement":2153,"Ġexpected":2154,"218":2155,"nl":2156,"109":2157,"decode":2158,"col":2159,"trust":2160,"MT":2161,"with":2162,"ample":2163,"Ġauth":2164,"08071":2165,"ily":2166,"08144":2167,"8059":2168,"topt":2169,"ĠDIR":2170,"Handle":2171,"inter":2172,"ĠppVar":2173,"Ġend":2174,"Ġpo":2175,"Ġtimespec":2176,"circ":2177,"Ġps":2178,"390":2179,"xfc":2180,"ore":2181,"rop":2182,"ibute":2183,"Ġatoi":2184,"urr":2185,"Ġ::":2186,"848":2187,"UNT":2188,"ĠpbStack":2189,"Ġsq":2190,"lass":2191,"Ġreg":2192,"pub":2193,"ml":2194,"xy":2195,"Ġhs":2196,"Test":2197,"8052":2198,"ĠER":2199,"xp":2200,"session":2201,"Update":2202,"Ġputchar":2203,"080624":2204,"08087":2205,"Ġbuffer":2206,"ĠppppppppuVar":2207,"act":2208,"fix":2209,"080489":2210,"tension":2211,"gnu":2212,"Ġprint":2213,"340":2214,"COUNT":2215,"ccurr":2216,"ression":2217,"termin":2218,"Ġmemmove":2219,"!!":2220,"08081":2221,"ccurred":2222,"ffc":2223,"pair":2224,"quire":2225,"\\\"\\":2226,"cs":2227,"control":2228,"ĠacStack":2229,"Ġcall":2230,"Ġuchar":2231,"amily":2232,"080530":2233,"8060":2234,"ax":2235,"Ver":2236,"199":2237,"her":2238,"LI":2239,"Ġ99":2240,"sudo":2241,"Ġcommand":2242,"CY":2243,"320":2244,"chron":2245,"123":2246,"00000008":2247,"ilter":2248,"xfd":2249,"080533":2250,"Ġdbus":2251,"890":2252,"lli":2253,"Ġperror":2254,"Ġstrtou":2255,"send":2256,"tifi":2257,"Tuple":2258,"afe":2259,"sys":2260,"xfffffffb":2261,"111":2262,"Ġper":2263,"08092":2264,"Func":2265,"could":2266,"BVar":2267,"tive":2268,"ĠapuStack":2269,"atexit":2270,"Time":2271,"Ġ800":2272,"block":2273,"nmemb":2274,"bea":2275,"CPU":2276,"08133":2277,"dev":2278,"ĠTO":2279,"ynchron":2280,"ntent":2281,"Ġvalid":2282,"asprintf":2283,"Ġheap":2284,"Ġssize":2285,"ute":2286,"intel":2287,"ysCache":2288,"Ġfd":2289,"Assert":2290,"fffffe":2291,"andsha":2292,"ĠMemoryContext":2293,"lite":2294,"gnor":2295,"Ġ#":2296,"08136":2297,"AssertException":2298,"jmp":2299,"080491":2300,"mod":2301,"reco":2302,"100000":2303,"barrier":2304,"080502":2305,"strerror":2306,"xfffffffd":2307,"ialize":2308,"UT":2309,"filename":2310,"lookup":2311,"504":2312,"policy":2313,"andshake":2314,"080492":2315,"ifier":2316,"Ġparse":2317,"pw":2318,"stats":2319,"toast":2320,"Ġcoproc":2321,"To":2322,"gh":2323,"datu":2324,"Ġmatches":2325,"304":2326,"Ser":2327,"]\"":2328,"datum":2329,"mul":2330,"rst":2331,"Ġarray":2332,"occurred":2333,"mple":2334,"level":2335,"CLES":2336,"null":2337,"fac":2338,"080488":2339,"Ġdis":2340,"box":2341,"OP":2342,"compare":2343,"hod":2344,"HW":2345,"ĠGet":2346,"\\'\"":2347,"command":2348,"PERF":2349,"lor":2350,"irst":2351,"CYCLES":2352,"dlt":2353,"ide":2354,"350":2355,"AD":2356,"root":2357,"consensus":2358,"107":2359,"8051":2360,"aaa":2361,"ppbVar":2362,"428":2363,"Value":2364,"298":2365,"8055":2366,"cn":2367,"ormal":2368,"quence":2369,"enabled":2370,"Ġtm":2371,"****":2372,"util":2373,"080538":2374,"moveto":2375,"123456789":2376,"bor":2377,"Ġthan":2378,"Type":2379,"??":2380,"sport":2381,"ared":2382,"Ġsigset":2383,"AA":2384,"xffffffb":2385,"Ġ]\\":2386,"Ġdup":2387,"CR":2388,"1020":2389,"adc":2390,"Ġhave":2391,"eed":2392,"112":2393,"erre":2394,"0002":2395,"404":2396,"remove":2397,"Ġrep":2398,"errexit":2399,"Int":2400,"8057":2401,"dbus":2402,"314":2403,"mn":2404,"ces":2405,"IP":2406,"Ġ300":2407,"plugin":2408,"Ġid":2409,"help":2410,"app":2411,"Ġstrlen":2412,"ORE":2413,"508":2414,"Name":2415,"126":2416,"peg":2417,"Ġ`":2418,"signature":2419,"0123456789":2420,"Ġstrtoul":2421,"324":2422,"ew":2423,"384":2424,"\\\":":2425,"ĠQPDF":2426,"rans":2427,"tificate":2428,"used":2429,"Ġcannot":2430,"net":2431,"bec":2432,"detoast":2433,"388":2434,"oll":2435,"08132":2436,"sum":2437,"ical":2438,"08088":2439,"ighbor":2440,"0005":2441,"08276":2442,"xdc":2443,"uint":2444,"atf":2445,"rivate":2446,"080501":2447,"ps":2448,"tend":2449,"SysCache":2450,"ies":2451,"inal":2452,"ow":2453,"Ġrange":2454,"Ġgot":2455,"08091":2456,"program":2457,"ĠpBVar":2458,"ynchronization":2459,"make":2460,"introdu":2461,"0828":2462,"408":2463,"Ġdescriptor":2464,"cata":2465,"wner":2466,"catalog":2467,"cnf":2468,"once":2469,"ĠPID":2470,"svn":2471,"080487":2472,"dec":2473,"SSL":2474,"Ġjoin":2475,"08149":2476,"Ġbfd":2477,"904":2478,"Ġafter":2479,"Ġstdin":2480,"ĠID":2481,"Di":2482,"Read":2483,"380":2484,"Ġes":2485,"setsize":2486,"0816":2487,"esc":2488,"Ġsi":2489,"Ġqu":2490,"Cannot":2491,"226":2492,"Ġoff":2493,"ĠappendStringInfoString":2494,"jpeg":2495,"sort":2496,"Ġbase":2497,"handshake":2498,"group":2499,"Synchronization":2500,"262":2501,"his":2502,"formation":2503,"401":2504,"20028":2505,"begin":2506,"0862":2507,"tected":2508,"Ġgroup":2509,"080513":2510,"etch":2511,"534":2512,"080522":2513,"Ġservice":2514,"edge":2515,"Ġindex":2516,"ĠPES":2517,"Mo":2518,"ĠpwVar":2519,"450":2520,"CU":2521,"gener":2522,"Ġcpuid":2523,"ending":2524,"080510":2525,"hist":2526,"pur":2527,"08090":2528,"310":2529,"ĠUN":2530,"Ġtable":2531,"ostringstream":2532,"den":2533,"1024":2534,"signed":2535,"088":2536,"ĠPMT":2537,"394":2538,"Ġtrn":2539,"cerr":2540,"Ġ\"#":2541,"struct":2542,"Ġrend":2543,"xffffffd":2544,"115":2545,"55555555":2546,"080524":2547,"has":2548,"Ġlink":2549,"080485":2550,"080520":2551,"Ġmjpeg":2552,"Ġcer":2553,"080613":2554,"368":2555,"8064":2556,"del":2557,"Ġwe":2558,"460":2559,"MA":2560,"EST":2561,"tup":2562,"ET":2563,"output":2564,"diff":2565,"Ġnull":2566,"ENT":2567,"ight":2568,"080619":2569,"08094":2570,"leep":2571,"recogn":2572,"08083":2573,"Ġinformation":2574,"XMP":2575,"EL":2576,"Ġ}\\":2577,"erase":2578,"___":2579,"080558":2580,"129":2581,"520":2582,"0839":2583,"ulti":2584,"IL":2585,"370":2586,"Ġconn":2587,"Ġsocket":2588,"CH":2589,"family":2590,"AME":2591,"ren":2592,"Ġwarn":2593,"mb":2594,"348":2595,"oo":2596,"rong":2597,"....":2598,"ster":2599,"nsport":2600,"454":2601,"xml":2602,"ump":2603,"Ġpath":2604,"request":2605,"OCK":2606,"idth":2607,"ority":2608,"Ġmemcpy":2609,"Alloc":2610,"hea":2611,"Ġfork":2612,"OPT":2613,"Ġdirent":2614,"edia":2615,"ĠCan":2616,"Ġmake":2617,"ipv":2618,"Ġaccess":2619,"Out":2620,"ident":2621,"random":2622,"wc":2623,"form":2624,"080569":2625,"Point":2626,"lict":2627,"080544":2628,"290":2629,"464":2630,"540":2631,"Usage":2632,"0833":2633,"stam":2634,"icture":2635,"Ġnetworkstatus":2636,"08612":2637,"Ġjoined":2638,"600":2639,"Create":2640,"080628":2641,"119":2642,"Ġcopy":2643,"getc":2644,"ĠIn":2645,"cture":2646,"Ġunique":2647,"127":2648,"plugins":2649,"Ġpr":2650,"Ġinter":2651,"Ġdetected":2652,"080516":2653,"aac":2654,"Ġserver":2655,"arget":2656,"080647":2657,"HT":2658,"ccess":2659,"wipe":2660,"046":2661,"Sign":2662,"080549":2663,"ĠabStack":2664,"unknown":2665,"DEF":2666,"NO":2667,"Ġsqlite":2668,"Function":2669,"flush":2670,"spon":2671,"iterator":2672,"Ġmore":2673,"364":2674,"080594":2675,"adata":2676,"encrypt":2677,"Ġthat":2678,"ops":2679,"Desc":2680,"ery":2681,"ece":2682,"socket":2683,"ransaction":2684,"np":2685,"Ġwriting":2686,"448":2687,"ĠppppiVar":2688,"REC":2689,"Ġpm":2690,"onion":2691,"ios":2692,"524":2693,"DW":2694,"play":2695,"lication":2696,"ork":2697,"Ġuser":2698,"tol":2699,"Ġhash":2700,"512":2701,"nptr":2702,"context":2703,"Ġcontain":2704,"Ġ`%":2705,"ced":2706,"pos":2707,"ĠStr":2708,"Ġsec":2709,"scanf":2710,"330":2711,"Ġmemwipe":2712,"dy":2713,"packet":2714,"atal":2715,"080527":2716,"Ġspecified":2717,"414":2718,"internal":2719,"438":2720,"ription":2721,"070":2722,"Ġsub":2723,"ĠMemoryContextAlloc":2724,"HA":2725,"Ġnon":2726,"ĠMy":2727,"ging":2728,"rt":2729,"fU":2730,"8066":2731,"xffffffe":2732,"strtok":2733,"Ġcor":2734,"Ġone":2735,"Ġfacets":2736,"IS":2737,"Com":2738,"080576":2739,"bbc":2740,"bae":2741,"Ġxmalloc":2742,"Ġrequest":2743,"080525":2744,"bss":2745,"080523":2746,"mage":2747,"999":2748,"Ġstrstr":2749,"Ġmodule":2750,"***":2751,"Ġqueueing":2752,"HER":2753,"500":2754,"Ġblock":2755,"Ġpasswd":2756,"080534":2757,"2020":2758,"588":2759,"206":2760,"endptr":2761,"Ġexist":2762,"introduce":2763,"Ġcontrol":2764,"!\"":2765,"ear":2766,"any":2767,"ERROR":2768,"ĠASN":2769,"dr":2770,"Ġbad":2771,"Ġstate":2772,"800000":2773,"impl":2774,"nsec":2775,"ĠZ":2776,"directory":2777,"fore":2778,"Ġmode":2779,"019238":2780,"Ġfwrite":2781,"rig":2782,"354":2783,"ync":2784,"Ti":2785,"dyn":2786,"elp":2787,"bcc":2788,"extension":2789,"Ġ\"!!!":2790,"rule":2791,"Ġret":2792,"080556":2793,"WLockA":2794,"realloc":2795,"Stream":2796,"store":2797,"unnel":2798,"network":2799,"125":2800,"uration":2801,"recognized":2802,"-%":2803,"non":2804,"snprintf":2805,"080519":2806,"Ġinfo":2807,"Ġmissing":2808,"Ġio":2809,"Ġrelation":2810,"fy":2811,"378":2812,"Unable":2813,"ite":2814,"rray":2815,"RECO":2816,"Final":2817,"122":2818,"080486":2819,"ARG":2820,"478":2821,"116":2822,"080629":2823,"encoding":2824,"ĠWav":2825,"080584":2826,"old":2827,"ready":2828,"Ġbms":2829,"132":2830,">::":2831,"Ġall":2832,"08093":2833,"080639":2834,"080568":2835,"acc":2836,"Ġ___":2837,"Ġshouldn":2838,"80000":2839,"Ġfail":2840,"At":2841,"pass":2842,"Ġ...":2843,"\\\\":2844,"Ġ\":%":2845,"host":2846,"vertex":2847,"080521":2848,"Ġlast":2849,"chedule":2850,"080537":2851,"ailable":2852,"358":2853,"080574":2854,"stringbuf":2855,"Ġstrcat":2856,"Ġdebug":2857,"Node":2858,"480":2859,"usec":2860,"Ġ$":2861,"080564":2862,"Ġsupported":2863,"Ġtcase":2864,"530":2865,"Ġmessage":2866,"ObjectHandle":2867,"pool":2868,"member":2869,"Open":2870,"080590":2871,"xfffffe":2872,"ogle":2873,"209":2874,"Timed":2875,"308":2876,"au":2877,"Ġcount":2878,"field":2879,"0822":2880,"80490":2881,"protocol":2882,"253":2883,"ĠWavpack":2884,"opts":2885,"Ġsend":2886,"398":2887,"attrs":2888,"os":2889,"RI":2890,"suff":2891,"tal":2892,"Ġclo":2893,"function":2894,"xfffff":2895,"expected":2896,"Qhull":2897,"tmp":2898,"contain":2899,"RECOVER":2900,"ppiStack":2901,"Ġpa":2902,"leg":2903,"tab":2904,"Ġtimeval":2905,"ABC":2906,"LAC":2907,"080528":2908,"ther":2909,"334":2910,"ideo":2911,"Digest":2912,"sible":2913,"tices":2914,"ĠuStackY":2915,"term":2916,"328":2917,"pthread":2918,"Ġusing":2919,"Ġframe":2920,"ĠVar":2921,"080535":2922,"lign":2923,"face":2924,"ĠZEXT":2925,"Zero":2926,"pla":2927,"660":2928,"ived":2929,"080550":2930,"lish":2931,"ABCDEF":2932,"order":2933,"stamp":2934,"538":2935,"served":2936,"ffe":2937,"Ġsockaddr":2938,"PTABLE":2939,"Ġsafe":2940,"Ġsection":2941,"warning":2942,"Ġwill":2943,"860":2944,"filter":2945,"pper":2946,"Ġlxc":2947,"Ġinst":2948,"JUM":2949,"080529":2950,"Ġfirst":2951,"LogMessage":2952,"caped":2953,"RECOVERED":2954,"JUMPTABLE":2955,"ATE":2956,"bin":2957,"mac":2958,"Call":2959,"[*":2960,"080636":2961,"tended":2962,"ĠSe":2963,"Lo":2964,"lx":2965,"lowed":2966,"extra":2967,"color":2968,"ĠPro":2969,"structure":2970,"080548":2971,"080547":2972,"113":2973,"Ġarch":2974,"Ġenter":2975,"Ġdir":2976,"20000":2977,"last":2978,"cnt":2979,"Ġtok":2980,"bit":2981,"Ġ[%":2982,"========":2983,"080536":2984,"Ġfunction":2985,"tcp":2986,"080598":2987,"TI":2988,"Ġup":2989,"080688":2990,"normal":2991,"IRCU":2992,"IRCUIT":2993,"DVar":2994,"cce":2995,"tw":2996,"AS":2997,"itor":2998,"ession":2999,"</":3000,"560":3001,"fStack":3002,"Ġgoogle":3003,"080614":3004,"update":3005,"ĠXLog":3006,"ĠMemoryContextAllocZero":3007,"?\"":3008,"side":3009,"LOCK":3010,"08082":3011,"Ġlappend":3012,"plan":3013,"lice":3014,"Count":3015,"width":3016,"ww":3017,"unable":3018,"mux":3019,"cover":3020,"verify":3021,"font":3022,"CSD":3023,"=\"":3024,"ĠLo":3025,"Logger":3026,"Ġstrncpy":3027,"Ġescaped":3028,"_%":3029,"Ġ20":3030,"ning":3031,"UNC":3032,"360":3033,"QPDF":3034,"imu":3035,"Ġmer":3036,"lf":3037,"Ġ\":":3038,"121":3039,"imum":3040,"chars":3041,"Ġyou":3042,"418":3043,"oc":3044,"vote":3045,"true":3046,"ssl":3047,"TCSD":3048,"sition":3049,"fde":3050,"080626":3051,"body":3052,"318":3053,"US":3054,"bab":3055,"Hash":3056,"Ġcell":3057,"partition":3058,"Session":3059,"xaa":3060,"mov":3061,"Slot":3062,"080578":3063,"135":3064,"Ġ'\\\\'":3065,"Ġstrl":3066,"40000":3067,"Dir":3068,"amic":3069,"ĠBuffer":3070,"Ġfiles":3071,"pped":3072,"fdc":3073,"':":3074,"we":3075,"080623":3076,"dump":3077,"486":3078,"202":3079,"828":3080,"CONN":3081,"MD":3082,"080577":3083,"locale":3084,"173":3085,"typ":3086,"080560":3087,"ĠPQget":3088,"080638":3089,"bw":3090,"timeout":3091,"ics":3092,"ESS":3093,"Ġdigestmap":3094,"Ġany":3095,"Align":3096,"CE":3097,"afc":3098,"cast":3099,"ĠFLAC":3100,"qui":3101,"STORE":3102,"Ġ->_":3103,"080555":3104,"first":3105,"pppiVar":3106,"iable":3107,"nap":3108,"dit":3109,"Dec":3110,"MVar":3111,"080557":3112,"484":3113,"zv":3114,"Ġremove":3115,"080615":3116,"ating":3117,"lower":3118,"dezv":3119,"080809":3120,"ĠExp":3121,"dezvous":3122,"alle":3123,".*":3124,"NAME":3125,"cac":3126,"post":3127,"Aligned":3128,"Ġ\"\\\"":3129,"conds":3130,"528":3131,"conflict":3132,"ĠMemoryContextAllocZeroAligned":3133,".'":3134,"Release":3135,"FA":3136,"Ġconsensus":3137,"vector":3138,"tests":3139,"fname":3140,"vir":3141,"ĠInt":3142,"ighbors":3143,"uri":3144,"search":3145,"TER":3146,"bj":3147,"Ġsscanf":3148,"stra":3149,"Ġ1000000":3150,"trans":3151,"Ġobject":3152,"060":3153,"transport":3154,"../":3155,"%%":3156,"VAL":3157,"IGN":3158,"xmp":3159,"142":3160,"lseek":3161,"Ġwrong":3162,"Ġunlink":3163,"State":3164,"Ġover":3165,"json":3166,"2000000":3167,"gg":3168,"settemp":3169,"078":3170,"sq":3171,"cel":3172,"666":3173,"ative":3174,"08278":3175,"1000000":3176,"ĠppppppppcVar":3177,"Ġexpression":3178,"Ġpoints":3179,"Ġused":3180,"Ġ'.'":3181,"Ġmb":3182,"Ġrlimit":3183,"550":3184,"EVar":3185,"ĠOP":3186,"connect":3187,"161":3188,"xbf":3189,"bed":3190,"Ġextend":3191,"eec":3192,"080526":3193,"Ġinv":3194,"straint":3195,"Ġpicture":3196,"rect":3197,"method":3198,"080744":3199,"sighandler":3200,"release":3201,"Ġmay":3202,"dist":3203,"idges":3204,"abe":3205,"mt":3206,"Ġrun":3207,"Ġalready":3208,"544":3209,"ĠJ":3210,"arge":3211,"relay":3212,"xdf":3213,"ENSSL":3214,"PE":3215,"gl":3216,"serve":3217,"ĠPQgetvalue":3218,">>>>":3219,"ĠpppppppuStack":3220,"840":3221,"242":3222,"802":3223,"rap":3224,"Ġsocks":3225,"ĠERROR":3226,"Unknown":3227,"Ġwaitpid":3228,"Add":3229,"tribute":3230,"Ġsk":3231,"sponse":3232,".__":3233,"bdf":3234,"cout":3235,"Ġclient":3236,"834":3237,"IZ":3238,"sl":3239,"ROM":3240,"Ġregister":3241,"place":3242,"sw":3243,"compress":3244,"pi":3245,"Ġlseek":3246,"EM":3247,"FILE":3248,"_\"":3249,"584":3250,"construct":3251,"080686":3252,"PI":3253,"Ġbuild":3254,"fec":3255,"late":3256,"lect":3257,"0004":3258,"Ġsequence":3259,"Page":3260,"Ġunk":3261,"bcf":3262,"anged":3263,"----------------":3264,"zone":3265,"apiStack":3266,"OK":3267,"080508":3268,"Ġopus":3269,"Ġoffset":3270,"458":3271,"8000000":3272,"033":3273,"result":3274,"181":3275,"906":3276,"tual":3277,"080559":3278,"chanis":3279,"215":3280,"cr":3281,"ĠOPENSSL":3282,"ĠEN":3283,"080554":3284,"648":3285,"Ġvfprintf":3286,"00000000":3287,"080506":3288,"socks":3289,"ecd":3290,"bdb":3291,"Ġdevice":3292,"081002":3293,"token":3294,"4000000":3295,"490":3296,"Ġnum":3297,"errors":3298,"perf":3299,"TP":3300,"empty":3301,"0830":3302,"080540":3303,"suffix":3304,"pic":3305,"117":3306,"purpose":3307,"chanism":3308,"clu":3309,"pri":3310,"tern":3311,"Ġcould":3312,"ritten":3313,"LVar":3314,"Ġhelp":3315,"equal":3316,"Ġtimeout":3317,"bfe":3318,"eda":3319,"Ġstrsignal":3320,"class":3321,"bff":3322,"pFStack":3323,"xca":3324,"366":3325,"ired":3326,"0007":3327,"lumn":3328,"eee":3329,"packed":3330,"081468":3331,"688":3332,"Ġbuf":3333,"Ġinitial":3334,"CIRCUIT":3335,"Ġmemset":3336,"Ġstrlcpy":3337,"ias":3338,"Ġpq":3339,"rece":3340,"top":3341,"ĠST":3342,"ĠPS":3343,"Check":3344,"public":3345,"increment":3346,"Ġ400":3347,"icro":3348,"Ġpackets":3349,"Ġres":3350,"Bad":3351,"Couldn":3352,"ĠpppbVar":3353,"opy":3354,"abcdef":3355,"ual":3356,"child":3357,"lit":3358,"cale":3359,"Ġcertificate":3360,"Impl":3361,"080543":3362,"ĠappendPQExpBufferStr":3363,"go":3364,"Ġcurrent":3365,"setappend":3366,"OS":3367,"warn":3368,"900":3369,"input":3370,"Ġme":3371,"0829":3372,"0835":3373,"xfb":3374,"andbox":3375,"openssl":3376,"Ġjson":3377,"554":3378,"inet":3379,"sleep":3380,"080588":3381,"Ġtry":3382,"ich":3383,"ĠES":3384,"080612":3385,"048":3386,"824":3387,"080539":3388,"lex":3389,"Ġwork":3390,"Ġvpadd":3391,"gnoring":3392,"Ġaddattr":3393,"SVar":3394,"183":3395,"Ġwarning":3396,"080505":3397,"Ġarchive":3398,"]._":3399,"gment":3400,"bda":3401,"Media":3402,"bl":3403,"bfc":3404,"152":3405,"nP":3406,"080690":3407,"pointid":3408,"Ġavailable":3409,"lxc":3410,"Encrypt":3411,"enti":3412,"rou":3413,"Ġ**__":3414,"GE":3415,"ĠIP":3416,"410":3417,"ĠppppppuStack":3418,"mary":3419,"Index":3420,"acter":3421,"multi":3422,"ĠSearch":3423,"08086":3424,"gen":3425,"lang":3426,"ada":3427,"unt":3428,"txn":3429,"ome":3430,"idden":3431,"080767":3432,"args":3433,"Ġsupport":3434,"Ġinstead":3435,"Hel":3436,"ĠpMVar":3437,"Ġstrmap":3438,"ofd":3439,"080807":3440,"Ġdatastructure":3441,"ARN":3442,"ofday":3443,"844":3444,"Table":3445,"timeofday":3446,"ntents":3447,"Ġtimer":3448,"Ġflag":3449,"ĠOPT":3450,"AV":3451,"rm":3452,"182":3453,"cons":3454,"++":3455,"down":3456,"908":3457,"dfe":3458,"Ġmnl":3459,"Ġfailure":3460,"ĠpEVar":3461,"ĠCh":3462,"Ġexec":3463,"ian":3464,"caf":3465,"139":3466,"9999":3467,"080563":3468,"640":3469,"plane":3470,"bits":3471,"080627":3472,"Verify":3473,"172":3474,"Ġwhen":3475,"Port":3476,"ROW":3477,"Ġmain":3478,"pppppiVar":3479,"=\\\"":3480,"Char":3481,"right":3482,"Transaction":3483,"Wait":3484,"access":3485,"145":3486,"Ġreport":3487,"131":3488,"shot":3489,"dict":3490,"ific":3491,"ĠSearchSysCache":3492,"Bu":3493,"080604":3494,"301":3495,"Ġrecursive":3496,"028":3497,"gb":3498,"ablish":3499,"ede":3500,"ino":3501,"allow":3502,"rrno":3503,"supported":3504,"Size":3505,"sm":3506,"cho":3507,"8068":3508,"0006":3509,"union":3510,"fae":3511,"system":3512,"points":3513,"bfd":3514,"Decrypt":3515,"cy":3516,"rate":3517,"edit":3518,"222":3519,"Ġasn":3520,"End":3521,"Ġtemp":3522,"Ġunknown":3523,"lement":3524,"rcu":3525,"man":3526,"Copy":3527,"338":3528,"acl":3529,"191":3530,"serv":3531,"08099":3532,"Ġ;\"":3533,"020":3534,"536":3535,"Ġfread":3536,"Ġdist":3537,"save":3538,"Ġioctl":3539,"tcase":3540,"Ġ\"\\\"\"":3541,"Exec":3542,"bdc":3543,"rence":3544,"704":3545,"yph":3546,"NU":3547,"ĠINT":3548,"Ġsyslog":3549,"163":3550,"236":3551,"080567":3552,"ObjectImpl":3553,"ĠNAL":3554,"errup":3555,"enter":3556,"ĠcopyObjectImpl":3557,"ev":3558,"Ġvideo":3559,"Ġgetopt":3560,"Ġ\"../":3561,"156":3562,"DIR":3563,"bac":3564,"ĠRelease":3565,"186":3566,"Ġ\\\"\"":3567,"Ġaudit":3568,"Ġreturned":3569,"241":3570,"080565":3571,"bers":3572,"498":3573,"Fatal":3574,"830":3575,"tom":3576,"tags":3577,"RA":3578,"eba":3579,"Ġequal":3580,"143":3581,"timezone":3582,"700":3583,"Rep":3584,"Ġident":3585,"chk":3586,"cept":3587,"...\"":3588,"ĠERR":3589,"Ġcalled":3590,"Ġms":3591,"08142":3592,"080582":3593,"Ġarguments":3594,"User":3595,"the":3596,"INE":3597,"ĠTspi":3598,"napshot":3599,"Sub":3600,"1001":3601,"Ġgener":3602,"uted":3603,"680":3604,"080580":3605,"212":3606,"XXXX":3607,"olve":3608,"548":3609,"257":3610,"Ġallowed":3611,"Helper":3612,"errn":3613,"->__":3614,"cor":3615,"Ġtext":3616,"cheduler":3617,"08147":3618,"DB":3619,"xce":3620,"518":3621,"ptVar":3622,"verse":3623,"conv":3624,"064":3625,"my":3626,"Ġ[*":3627,"Ġstrtol":3628,"Ġmany":3629,"SP":3630,"Ġport":3631,"ton":3632,"147":3633,"784":3634,"legal":3635,"CA":3636,"wh":3637,"Ġlen":3638,"Ġstatus":3639,"leted":3640,"00028":3641,"Ġtrans":3642,"080531":3643,"].__":3644,"780":3645,"146":3646,"176":3647,"192":3648,"ipher":3649,"specifier":3650,"136":3651,"ĠppfVar":3652,"272":3653,"master":3654,"oken":3655,"Ġcharacter":3656,"080545":3657,"Reg":3658,"Ġrate":3659,"Ġaddr":3660,"080570":3661,"tach":3662,"pnp":3663,"151":3664,"xffe":3665,"errnum":3666,"embers":3667,"Ġedge":3668,"141":3669,"eger":3670,"080599":3671,"080600":3672,"generate":3673,"bca":3674,"080620":3675,"080509":3676,"istics":3677,"modules":3678,"efa":3679,"Ġ'\\\"":3680,"atum":3681,"884":3682,"fce":3683,"area":3684,"seq":3685,"ols":3686,"td":3687,"Ġmon":3688,"Command":3689,"Tspi":3690,"Write":3691,"0838":3692,"edc":3693,"arm":3694,"Ġclock":3695,"3333":3696,"clean":3697,"WARN":3698,"fca":3699,"684":3700,"Ġorc":3701,"1028":3702,"604":3703,"ART":3704,"afa":3705,"335":3706,"Ġoptopt":3707,"initial":3708,"FOR":3709,"ntin":3710,"gnored":3711,"encrypted":3712,"Su":3713,"080484":3714,"bee":3715,"8065":3716,"CL":3717,"Ġ10000":3718,"fetch":3719,"ppcStack":3720,"080616":3721,"abi":3722,"adding":3723,"keys":3724,"networkstatus":3725,"ie":3726,"Ġcur":3727,"Ġ'\\\"'":3728,"\"[":3729,"080542":3730,"Internal":3731,"rendezvous":3732,"189":3733,"Control":3734,"080643":3735,"080739":3736,"usage":3737,"HO":3738,"cancel":3739,"898":3740,"current":3741,"Ġtermin":3742,"Scan":3743,"133":3744,"mutexattr":3745,"This":3746,"dee":3747,"984":3748,"gets":3749,"ĠNo":3750,"080553":3751,"Ġcre":3752,"cur":3753,"seek":3754,"alance":3755,"8067":3756,"eeb":3757,"ĠMain":3758,"defaults":3759,"cause":3760,"Ġ\"*":3761,"ĠPAT":3762,"metadata":3763,"LWLockA":3764,"aae":3765,"Ġbefore":3766,"00000010":3767,"Device":3768,"Ġclosed":3769,"514":3770,"vor":3771,"xfa":3772,"Start":3773,"celt":3774,"Ġgettimeofday":3775,"Ġchunk":3776,"efe":3777,"Ġlookup":3778,"dirent":3779,"Ġaudio":3780,"feca":3781,"aec":3782,"080551":3783,"137":3784,"shared":3785,"2004":3786,"ĠQhull":3787,"LWLockArray":3788,"dh":3789,"nodelist":3790,"ĠPlease":3791,"establish":3792,"UR":3793,"cent":3794,"scr":3795,"720":3796,"0834":3797,"Ġstack":3798,"unsigned":3799,"Ġcle":3800,"laun":3801,"027":3802,"active":3803,"080666":3804,"08050020":3805,"Memory":3806,"ged":3807,"Ġad":3808,"Ġzlecs":3809,"planar":3810,"item":3811,"Ġpav":3812,"1092":3813,"INF":3814,"Ġpavgb":3815,"Met":3816,"attern":3817,"IZE":3818,"468":3819,"Could":3820,"Ġcontext":3821,"licate":3822,"attribute":3823,"trunnel":3824,"riter":3825,"TIME":3826,"ĠMainLWLockArray":3827,"float":3828,"sn":3829,"amed":3830,"Ġ\".\"":3831,"ĠsStack":3832,"Ġmk":3833,"proxy":3834,"=\\'":3835,"Le":3836,"eded":3837,"004":3838,"195":3839,"ĠVer":3840,"149":3841,"Recover":3842,"ĠpmVar":3843,"LS":3844,"0820":3845,"Ġunkuint":3846,"594":3847,"cbc":3848,"Ġvector":3849,"TM":3850,"302":3851,"Default":3852,"irect":3853,"DR":3854,"ux":3855,"0453":3856,"ĠQPDFObjectHandle":3857,"ise":3858,"wind":3859,"402":3860,"ĠprVar":3861,"336":3862,"730":3863,"MM":3864,"cpp":3865,"slot":3866,"nth":3867,"change":3868,"Ġerrno":3869,"Ġsandbox":3870,"252":3871,"80498":3872,"Ġoper":3873,"mote":3874,"dfc":3875,"080747":3876,"vision":3877,"764":3878,"227":3879,"men":3880,"Ġwithout":3881,"header":3882,"ecb":3883,"654":3884,"728":3885,"760":3886,"On":3887,"expand":3888,"prefix":3889,"580":3890,"Ġsyst":3891,"ility":3892,"Par":3893,"Ġexc":3894,"155":3895,"xffffffa":3896,"validate":3897,"cfc":3898,"Ġpstrdup":3899,"Ġ%-":3900,"8063":3901,"Ġdid":3902,"hook":3903,"Ġrecord":3904,"IF":3905,"eca":3906,"yle":3907,"167":3908,"080711":3909,"080596":3910,"Ġcompare":3911,"Ġvi":3912,"dff":3913,"177":3914,"568":3915,"logic":3916,"080592":3917,"callback":3918,"920":3919,"YPE":3920,"Ġmp":3921,"decrement":3922,"RYPT":3923,"ĠDe":3924,"bool":3925,"Ġ%.*":3926,"229":3927,"488":3928,"utable":3929,"636":3930,"Ġ\"$":3931,"Ġneed":3932,"Output":3933,"Ġzero":3934,"203":3935,"Ġmask":3936,"470":3937,"efc":3938,"Ġvar":3939,"ĠUP":3940,"LOOP":3941,"WARNING":3942,"dea":3943,"ĠLOCK":3944,"ccc":3945,"disable":3946,"section":3947,"encoder":3948,"]]":3949,"080990":3950,"total":3951,"Comp":3952,"safe":3953,"PEG":3954,"207":3955,"Blocks":3956,"MAX":3957,"Ġinet":3958,"********":3959,"cdc":3960,"ipping":3961,"CSP":3962,"ĠLocal":3963,"Hashtable":3964,"balance":3965,"rela":3966,"080664":3967,"Ġload":3968,"ĠFailed":3969,"utf":3970,"ĠAB":3971,"080679":3972,"788":3973,"cated":3974,"glyph":3975,"eq":3976,"bases":3977,"cmds":3978,"ĠUNLOCK":3979,"viron":3980,"aaf":3981,"ĠThis":3982,"cfg":3983,"Sp":3984,"resh":3985,"Ġstrr":3986,"head":3987,"ynamic":3988,"Ġstrrchr":3989,"UP":3990,"ano":3991,"ĠIN":3992,"Ġ\"::":3993,"001":3994,"080684":3995,"193":3996,"vious":3997,"798":3998,"185":3999,"243":4000,"Ġsystem":4001,"blem":4002,"988":4003,"080503":4004,"080562":4005,"aved":4006,"838":4007,"trl":4008,"08315":4009,"createf":4010,"Ġxf":4011,"Ġelement":4012,"Ġsym":4013,"lim":4014,"ĠData":4015,"rev":4016,"080552":4017,"080607":4018,"197":4019,"rebalance":4020,"Ġbits":4021,"080621":4022,"080738":4023,"abb":4024,"Ġitimer":4025,"406":4026,"afd":4027,"237":4028,"Ġcl":4029,"080579":4030,"474":4031,"split":4032,"ublic":4033,"Ġsystable":4034,"roper":4035,"1080":4036,"OUT":4037,"175":4038,"08140":4039,"081464":4040,"ĠWavpackGet":4041,"afb":4042,"bfa":4043,"081307":4044,"lause":4045,"037":4046,"1051":4047,"Ġtc":4048,"PDIR":4049,"utex":4050,"Ġsetlocale":4051,"Proc":4052,"558":4053,"unrecognized":4054,"045368":4055,"sym":4056,"Ġlock":4057,"Ġ\"??":4058,"abf":4059,"force":4060,"TMPDIR":4061,"878":4062,"852":4063,"[~":4064,"pending":4065,"inary":4066,"166":4067,"!\\":4068,"way":4069,"0003":4070,"Ġcmd":4071,"ĠBIGN":4072,"elect":4073,"ĠBIGNUM":4074,"590":4075,"baa":4076,"fmt":4077,"08051591":4078,"${":4079,"ade":4080,"cad":4081,"ĠpppuStack":4082,"Ġctx":4083,"ĠString":4084,"426":4085,"ayload":4086,"286":4087,"171":4088,"376":4089,"replay":4090,"cstring":4091,"187":4092,"tify":4093,"serial":4094,"Ġhost":4095,"668":4096,"GINE":4097,"dns":4098,"080694":4099,"685":4100,"80499":4101,"948":4102,"bce":4103,"Ġ\"\\'":4104,"stdin":4105,"Relation":4106,"880":4107,"til":4108,"ĠPCR":4109,"compat":4110,"080611":4111,"ĠMPEG":4112,"secret":4113,"098":4114,"none":4115,"dep":4116,"903":4117,"\\\".":4118,">::~":4119,"ference":4120,"08145":4121,"08613":4122,"encoded":4123,"044":4124,"prop":4125,"acd":4126,"dcc":4127,"vert":4128,"aee":4129,"mainloop":4130,"New":4131,"Ġbit":4132,"Ġrece":4133,"08062532":4134,"aad":4135,"eff":4136,"ĠFROM":4137,"8070":4138,"Ġmulti":4139,"080566":4140,"Ġzlemet":4141,"decoder":4142,"Version":4143,"810":4144,"Extended":4145,"ĠStringBuffer":4146,"564":4147,"850":4148,"ĠLock":4149,"xef":4150,"ured":4151,"Ġ\"\\\\":4152,"080689":4153,"417":4154,"664":4155,"ML":4156,"ebf":4157,"nbytes":4158,"Ġresult":4159,"only":4160,"icrodesc":4161,"Please":4162,"number":4163,"080765":4164,"Not":4165,"full":4166,"Sh":4167,"Select":4168,"rb":4169,"Ġref":4170,"namespace":4171,"usr":4172,"Coll":4173,"aba":4174,"ni":4175,"Ġtuple":4176,"sele":4177,"081402":4178,"SEL":4179,"ĠLocalBuffer":4180,"159":4181,"Ġwhich":4182,"retaddr":4183,"element":4184,"Ġitimerspec":4185,"574":4186,"emp":4187,"over":4188,"page":4189,"205":4190,"ler":4191,"Ġbecause":4192,"586":4193,"times":4194,"fnumber":4195,"Pointers":4196,"ake":4197,"ĠLWLock":4198,"306":4199,"setmask":4200,"interval":4201,"Ġsample":4202,"math":4203,"494":4204,"UE":4205,"You":4206,"00010":4207,"232":4208,"Ġseconds":4209,"IPHER":4210,"icode":4211,"meq":4212,"inode":4213,"068":4214,"570":4215,"854":4216,"Rece":4217,"acf":4218,"Ġppppp":4219,"false":4220,"ript":4221,"ĠENGINE":4222,"ach":4223,"Ġsame":4224,"Current":4225,"CIPHER":4226,"Ġbp":4227,"itle":4228,"commit":4229,"Ġwarnx":4230,"macro":4231,"ĠABS":4232,"memeq":4233,"ĠPoint":4234,"080573":4235,"im":4236,"device":4237,"1030":4238,"Hol":4239,"Auth":4240,"Ġmark":4241,"BlockPointers":4242,"ĠLocalBufferBlockPointers":4243,"ision":4244,"oip":4245,"so":4246,"342":4247,"fcc":4248,"Ġseccomp":4249,"768":4250,"ĠBufferBlocks":4251,"Ġ\"::\"":4252,"216":4253,"Ġterm":4254,"reserve":4255,"080637":4256,"403":4257,"Ġthres":4258,"ĠThe":4259,"bridge":4260,"Handler":4261,"clude":4262,"target":4263,"Ġ***********":4264,"ĠPQfnumber":4265,"oftw":4266,"offset":4267,"vironment":4268,"oftware":4269,"bp":4270,"couldn":4271,"08097":4272,"Ġtw":4273,"ĠOCSP":4274,"RYPTO":4275,"IX":4276,"ecc":4277,"xfffffffa":4278,"...\\":4279,"ĠOR":4280,"405":4281,"andard":4282,"Ġvpaddw":4283,"coll":4284,"ERT":4285,"Ġmerge":4286,"Datum":4287,"ridge":4288,"ĠInit":4289,"0824":4290,"080589":4291,"CKF":4292,"074":4293,"Ġshow":4294,"helper":4295,"Service":4296,"016":4297,"sent":4298,"Ġfcnt":4299,"Ġfcntl":4300,"812":4301,"1034":4302,"ribe":4303,"query":4304,"Ġro":4305,"1018":4306,"ircuits":4307,"cfe":4308,"080644":4309,"Ġfileno":4310,"Gener":4311,"ctrl":4312,"ĠVersion":4313,"parser":4314,"><":4315,"cv":4316,"ĠRSA":4317,"ere":4318,"missing":4319,"ffb":4320,"Ġfgets":4321,"outine":4322,"ĠCRYPTO":4323,"\\'\\'":4324,"olu":4325,"bbb":4326,"recision":4327,"040":4328,"GNU":4329,"08134":4330,"400000":4331,"510":4332,"Empty":4333,"ND":4334,"final":4335,"ries":4336,"ai":4337,"0836":4338,"080609":4339,"unused":4340,"rang":4341,"Ġ\"/\"":4342,"ĠpppppppuStackY":4343,"mis":4344,"reset":4345,"080774":4346,"Ġvertex":4347,"ghi":4348,"allel":4349,"Warning":4350,"Ġvmov":4351,"157":4352,"Ġlarge":4353,"xbd":4354,"kern":4355,"Ġ*********":4356,"Ġmbstate":4357,"Ar":4358,"Number":4359,"private":4360,"sist":4361,"Ġkilled":4362,"efd":4363,"iso":4364,"unit":4365,"ĠException":4366,"fork":4367,"Ġback":4368,"8069":4369,"ici":4370,"dab":4371,"ppFVar":4372,"Ġsetting":4373,"matches":4374,"executed":4375,"827":4376,"MIT":4377,"We":4378,"Ġinto":4379,"1010":4380,"Ġ16":4381,"fffffffe":4382,"Ġdatabase":4383,"pauVar":4384,"cba":4385,"acb":4386,"162":4387,"196":4388,"Ġso":4389,"179":4390,"Ġchange":4391,"aged":4392,"610":4393,"708":4394,"bdd":4395,"Ġ500":4396,"080583":4397,"ph":4398,"disk":4399,"650":4400,"[%":4401,"aed":4402,"cipher":4403,"fgetc":4404,"self":4405,"80494":4406,"080572":4407,"08279":4408,"PRO":4409,"dbc":4410,"hb":4411,"080541":4412,"AAAA":4413,"Owner":4414,"dae":4415,"vertices":4416,"080507":4417,"ĠAl":4418,"025":4419,"caa":4420,"235":4421,"Ġmis":4422,"PO":4423,"rv":4424,"Ġdetermin":4425,"ĠUpnp":4426,"untime":4427,"ĠReleaseSysCache":4428,"OF":4429,"Se":4430,"239":4431,"initialize":4432,"quired":4433,"specific":4434,"funcs":4435,"anosleep":4436,"624":4437,"note":4438,"nexp":4439,"ĠDH":4440,"quires":4441,"dac":4442,"flow":4443,"ĠpppiStack":4444,"Ġssl":4445,"080660":4446,"080646":4447,"ĠapFStack":4448,"GetDatum":4449,"Ġempty":4450,"Ġstdscr":4451,"543":4452,"Ġmin":4453,"396":4454,"Ġattribute":4455,"elem":4456,"LA":4457,"Ġdue":4458,"heap":4459,"864":4460,"mgr":4461,"setup":4462,"Ġcore":4463,"INFO":4464,"nexpected":4465,"eea":4466,"Ġgive":4467,"080632":4468,"080655":4469,"165":4470,"Ġztr":4471,"Ġyour":4472,"790":4473,"080665":4474,"rup":4475,"cae":4476,"rime":4477,"ffffffe":4478,"expr":4479,"ĠUPnP":4480,"0832":4481,"Ġclosedir":4482,"634":4483,"674":4484,"Close":4485,"Line":4486,"Token":4487,"cfa":4488,"uv":4489,"parent":4490,"ĠTor":4491,"pppppppuVar":4492,"ĠLWLockRelease":4493,"024":4494,"526":4495,"container":4496,"653":4497,"818":4498,"AM":4499,"pbStack":4500,"Ġ\"***":4501,"atio":4502,"fea":4503,"puts":4504,"settempfree":4505,"pop":4506,"und":4507,"ĠCannot":4508,"FunctionCall":4509,"Ġxfree":4510,"Ġsign":4511,"try":4512,"ĠDis":4513,"pubkey":4514,"386":4515,"listener":4516,"ĠRead":4517,"ĠNet":4518,"Database":4519,"0837":4520,"080634":4521,"job":4522,"Err":4523,"080610":4524,"080730":4525,"707":4526,"lines":4527,"Ġ\"-\"":4528,"578":4529,"ntor":4530,"eric":4531,"080649":4532,"aea":4533,"SELECT":4534,"dba":4535,"acquire":4536,"cea":4537,"aef":4538,"Ġdisplay":4539,"644":4540,"cquire":4541,"Ġextra":4542,"ĠBN":4543,"ailure":4544,"IST":4545,"best":4546,"bbd":4547,"ebc":4548,"owner":4549,"pm":4550,"0825":4551,"Ġ\"???\"":4552,"980":4553,"='":4554,"TA":4555,"wal":4556,"parameter":4557,"adf":4558,"resource":4559,"ĠUNRECOVERED":4560,"rw":4561,"rsa":4562,"less":4563,"artition":4564,"sudoers":4565,"Word":4566,"]\\'":4567,"080754":4568,"Ġ\"%-":4569,"ĠNOT":4570,"090":4571,"219":4572,"080640":4573,"beb":4574,"Ġmaximum":4575,"SY":4576,"neighbors":4577,"glibc":4578,"ĠUNK":4579,"Ġiconv":4580,"ffd":4581,"801":4582,"setjmp":4583,"ulate":4584,"cpu":4585,"ough":4586,"ĠSet":4587,"761":4588,"igger":4589,"Ġ#%":4590,"Snapshot":4591,"UNRECOVERED":4592,"245":4593,"Delete":4594,"IGIN":4595,"TO":4596,"dfa":4597,"337":4598,"080586":4599,"LIMIT":4600,"saved":4601,"ynt":4602,"8062":4603,"optind":4604,"018":4605,"990":4606,"Ġ'='":4607,"080726":4608,"ONE":4609,"Ġ\"%*":4610,"678":4611,"BOR":4612,"Ios":4613,"title":4614,"Ġcache":4615,"080766":4616,"pare":4617,"Ġdef":4618,"Ġnet":4619,"Ġselect":4620,"Ġacl":4621,"Ġvalues":4622,"TC":4623,"idx":4624,"081404":4625,"08095":4626,"memfree":4627,"Ġnanosleep":4628,"okie":4629,"identity":4630,"030":4631,"960":4632,"080608":4633,"esource":4634,"Ġold":4635,"enable":4636,"08148":4637,"bose":4638,"REQ":4639,"ĠpsStack":4640,"Ġsignature":4641,"repos":4642,"Ġbet":4643,"Ġdelete":4644,"20000000":4645,"738":4646,"cca":4647,"zu":4648,"Ġrt":4649,"Initialize":4650,"ĠasStack":4651,"Post":4652,"req":4653,"Ġ\"+":4654,"080656":4655,"tim":4656,"strings":4657,"276":4658,"Ġdown":4659,"Ġchdir":4660,"Ġ.\\":4661,"Ġent":4662,"column":4663,"div":4664,"Ġsetenv":4665,"Ġztrdup":4666,"894":4667,"bugs":4668,"ĠIs":4669,"KCS":4670,"Per":4671,"221":4672,"rox":4673,"080561":4674,"080575":4675,"ĠTCS":4676,"Ġfilename":4677,"UC":4678,"clo":4679,"cde":4680,"gress":4681,"Ġ%#":4682,"00016":4683,"Ġbeen":4684,"ĠoutNode":4685,"AND":4686,"EGER":4687,"Ġpsraw":4688,"Ġmsg":4689,"aab":4690,"3540":4691,"ĠTest":4692,"646":4693,"cee":4694,"081356":4695,"ĠapbStack":4696,"Ġconfiguration":4697,"Mod":4698,"Openmode":4699,"734":4700,"740":4701,"Section":4702,"rehash":4703,"1040":4704,"Ġshout":4705,"FPU":4706,"sync":4707,"Ġbind":4708,"xfffffd":4709,"ilder":4710,"08130":4711,"cket":4712,"6514":4713,"Ġdistance":4714,"Ġpng":4715,"542":4716,"day":4717,"ĠpauVar":4718,"olume":4719,"714":4720,"Dynamic":4721,"cument":4722,"lan":4723,"edump":4724,"ross":4725,"583":4726,"ĠapfStack":4727,"080595":4728,"Request":4729,"080668":4730,"Ġhex":4731,"bfb":4732,"chema":4733,"ControlWord":4734,"yntax":4735,"FPUControlWord":4736,"YZ":4737,"ddc":4738,"indo":4739,"Ġfstat":4740,"080630":4741,"nels":4742,"Expr":4743,"indow":4744,"Ġsr":4745,"742":4746,"Ġfix":4747,"Register":4748,"Free":4749,"dde":4750,"ycle":4751,"ĠON":4752,"080606":4753,"Ġsyscall":4754,"934":4755,"nte":4756,"225":4757,"mid":4758,"246":4759,"asn":4760,"ĠpppppppppppiVar":4761,"Ġstrtok":4762,"Input":4763,"files":4764,"BORROW":4765,"MU":4766,"08096":4767,"maining":4768,"Ġvertices":4769,"080618":4770,"Ġhist":4771,"ĠSBORROW":4772,"certs":4773,"TS":4774,"Ġmap":4775,"Insert":4776,"dante":4777,"08051180":4778,"Ġcontains":4779,"padding":4780,"yy":4781,"153":4782,"233":4783,"faec":4784,"ORIGIN":4785,"Ġcoredump":4786,"bias":4787,"gor":4788,"tri":4789,"080669":4790,"fab":4791,"Ġthread":4792,"Ġstrcmpstart":4793,"Ġspecify":4794,"www":4795,"DynamicMedia":4796,"914":4797,"bbe":4798,"cec":4799,"Ġrequires":4800,"080603":4801,"bep":4802,"snbep":4803,"done":4804,"hint":4805,"CONF":4806,"iver":4807,"Ġvsnprintf":4808,"231":4809,"Ġband":4810,"keyword":4811,"ween":4812,"Holder":4813,"034":4814,"decrypt":4815,"trlimit":4816,"080654":4817,"080727":4818,"aeb":4819,"cmpnum":4820,"80496":4821,"-----":4822,"eac":4823,"routine":4824,"Ġcli":4825,"complete":4826,"agg":4827,"Ġ$\"":4828,"Ġtoken":4829,"Ġ<%":4830,"erHolder":4831,"261":4832,"problem":4833,"00000054":4834,"compute":4835,"Ġsocklen":4836,"744":4837,"080482":4838,"8061":4839,"cdf":4840,"........":4841,"HERE":4842,"868":4843,"950":4844,"cm":4845,"ft":4846,"hdr":4847,"fds":4848,"All":4849,"Multi":4850,"llegal":4851,"sample":4852,"Ġwint":4853,"describe":4854,"Event":4855,"ulong":4856,"Ġupdate":4857,"ĠpppppppcVar":4858,"724":4859,"Ġraw":4860,"ĠpDVar":4861,"Ġitem":4862,"tuid":4863,"080635":4864,"080605":4865,"cmdline":4866,"Rec":4867,"mate":4868,"mplement":4869,"Find":4870,"iv":4871,"0831":4872,"response":4873,"Ġfgetc":4874,"080674":4875,"bef":4876,"552":4877,"errupt":4878,"PR":4879,"cdd":4880,"second":4881,"ppuStack":4882,"Ġcirc":4883,"Ġdiffe":4884,"OPTION":4885,"ĠpSVar":4886,"acu":4887,"282":4888,"ĠSE":4889,"Ġridges":4890,"Process":4891,"cleanup":4892,"VM":4893,"setfree":4894,"pcm":4895,"jk":4896,"tver":4897,"simple":4898,"080760":4899,"EBP":4900,"gorith":4901,"bio":4902,"Ġpoll":4903,"Ġimp":4904,"Ġusage":4905,"Ġunexpected":4906,"045":4907,"Ġerrflag":4908,"054":4909,"attach":4910,"ferno":4911,"hashing":4912,"pointer":4913,"Server":4914,"ĠInferno":4915,"ĠNettver":4916,"ĠNettverk":4917,"LY":4918,"Members":4919,"kXMP":4920,"Ġignored":4921,"abd":4922,"Ġexpr":4923,"Ġmethod":4924,"vStack":4925,"Ġ-*":4926,"return":4927,"ĠppLVar":4928,"00039":4929,"080483":4930,"acuum":4931,"Max":4932,"mq":4933,"Ġreverse":4934,"asc":4935,"position":4936,"env":4937,"Ġtrying":4938,"718":4939,"HI":4940,"IFF":4941,"UV":4942,"aca":4943,"080723":4944,"enden":4945,"762":4946,"572":4947,"Deque":4948,"ĠMyProc":4949,"08080768":4950,"628":4951,"Xact":4952,"daf":4953,"correct":4954,"630":4955,"080617":4956,"080667":4957,"xbb":4958,"endir":4959,"Ġhandle":4960,"canon":4961,"Ġproper":4962,"kernel":4963,"211":4964,"Failure":4965,"Param":4966,"Ġreset":4967,"tocol":4968,"keep":4969,"cells":4970,"sfree":4971,"Ġ?":4972,"08135":4973,"Ġzsfree":4974,"Ġpmadd":4975,"aml":4976,"changed":4977,"replace":4978,"080670":4979,"Ġ[_":4980,"353":4981,"terator":4982,"andom":4983,"ĠUse":4984,"thiscall":4985,"Ġterminated":4986,"launch":4987,"TYPE":4988,"Ġ'#":4989,"080587":4990,"lX":4991,"enc":4992,"658":4993,"ATH":4994,"8074":4995,"80497":4996,"Format":4997,"contains":4998,"620":4999,"Ġdate":5000,"15180":5001,"407":5002,"Ġreader":5003,"874":5004,"resize":5005,"007":5006,"541":5007,"Ġstarting":5008,"skip":5009,"Prime":5010,"bba":5011,"cff":5012,"Ġlcons":5013,"670":5014,"card":5015,"080705":5016,"nore":5017,"timestamp":5018,"Ġspace":5019,"Ġtempor":5020,"608":5021,"223":5022,"ations":5023,"LM":5024,"obj":5025,"source":5026,"ush":5027,"ĠppppuStack":5028,"getconst":5029,"Options":5030,"Ġrunning":5031,"cl":5032,"Ġnext":5033,"Ġsource":5034,"bcd":5035,"Ġpppppppp":5036,"Ġaccept":5037,"Ġsige":5038,"Ġjsonw":5039,"ntinu":5040,"080602":5041,"259":5042,"uncate":5043,"081073":5044,"pppppppuStack":5045,"Ġdupstring":5046,"Ġconnect":5047,"ranged":5048,"Ġgiven":5049,"822":5050,"994":5051,"cfd":5052,"Ġimage":5053,"cab":5054,"080793":5055,"Ġhead":5056,"Result":5057,"substr":5058,"Ġencoding":5059,"Ġenough":5060,"entication":5061,"Ġmismatch":5062,"undant":5063,"Ġ'#'":5064,"dbd":5065,"va":5066,"desk":5067,"Ġdestroy":5068,"project":5069,"sockopt":5070,"Ġ2014":5071,"desktop":5072,"094":5073,"953":5074,"Source":5075,"dl":5076,"Status":5077,"Ġdump":5078,"ĠCrit":5079,"265":5080,"Ġ~*":5081,"ĠPointerHolder":5082,"SectionCount":5083,"ĠCritSectionCount":5084,"814":5085,"ield":5086,"Ġra":5087,"xcb":5088,"080680":5089,"tiv":5090,"442":5091,"STR":5092,"Ġsqrt":5093,"wrap":5094,"Ġwant":5095,"00013":5096,"pwutil":5097,"Ġbetween":5098,"614":5099,"346":5100,"783":5101,"Ġmutex":5102,"testing":5103,"Ġopendir":5104,"resolve":5105,"auto":5106,"Client":5107,"daa":5108,"hay":5109,"lz":5110,"Ġlo":5111,"Ġexited":5112,"haystack":5113,"Ġam":5114,"Ġreaddir":5115,"ĠRLIMIT":5116,"Ġpassword":5117,"ĠSTART":5118,"ebb":5119,"unicode":5120,"nest":5121,"freedesktop":5122,"Ġpack":5123,"tod":5124,"359":5125,"Ġtag":5126,"Ġgetpid":5127,"ĠpcStackY":5128,"ObjectHelper":5129,"meta":5130,"Mode":5131,"dfd":5132,"ont":5133,"cached":5134,"ĠppDVar":5135,"080597":5136,"Ġses":5137,"STEM":5138,"REATE":5139,"ILED":5140,"kXMPErr":5141,"Ġpri":5142,"chdir":5143,"rname":5144,"345":5145,"adb":5146,"595":5147,"080591":5148,"0806211":5149,"ĠaiStackY":5150,"Ġduplicate":5151,"050":5152,"858":5153,"round":5154,"08137":5155,"ocket":5156,"827999":5157,"XYZ":5158,"Ġeach":5159,"ĠLWLockA":5160,"contents":5161,"080750":5162,"982":5163,"Ġapprox":5164,"bitmap":5165,"jkl":5166,"ĠLWLockAcquire":5167,"By":5168,"IC":5169,"0028":5170,"dify":5171,"598":5172,"App":5173,"Is":5174,"ĠEX":5175,"372":5176,"ĠSp":5177,"Ġopenlog":5178,"xyz":5179,"JK":5180,"}\\\"":5181,"ntop":5182,"orage":5183,"igin":5184,"715":5185,"dbe":5186,"Ġprivate":5187,"Ġclass":5188,"brary":5189,"UserId":5190,"BO":5191,"year":5192,"ĠFile":5193,"Ġfilter":5194,"080648":5195,"reach":5196,"409":5197,"ceb":5198,"ĠppppiStack":5199,"Ġcdio":5200,"ddb":5201,"uring":5202,"Ġaddrinfo":5203,"hth":5204,"oriz":5205,"role":5206,"292":5207,"ĠSend":5208,"tap":5209,"Ġlimit":5210,"ASE":5211,"1014":5212,"Ġ100000000":5213,"Ġred":5214,"ghijkl":5215,"uvw":5216,"gorithm":5217,"NS":5218,"att":5219,"roma":5220,"ilt":5221,"atalog":5222,"xap":5223,"lta":5224,"ABCDEFG":5225,"weight":5226,"415":5227,"cda":5228,"qrst":5229,"247":5230,"00017":5231,"375":5232,"Ġvariable":5233,"618":5234,"bt":5235,"PTS":5236,"vex":5237,"592":5238,"Ġsee":5239,"Ġlike":5240,"BJ":5241,"mutable":5242,"080698":5243,"Ġprevious":5244,"mnop":5245,"Qual":5246,"fba":5247,"uage":5248,"ngine":5249,"501":5250,"Ġtid":5251,"linux":5252,"Ġalarm":5253,"039":5254,"oi":5255,"inlock":5256,"deb":5257,"706":5258,"lum":5259,"atures":5260,"Ġclear":5261,"Ġpid":5262,"485":5263,"END":5264,"Ġneighbors":5265,"lumns":5266,"748":5267,"cbf":5268,"Ġrow":5269,"____":5270,"00018":5271,"Rel":5272,"subversion":5273,"ĠPQclear":5274,"UVW":5275,"JKLM":5276,"qrstuvw":5277,"Li":5278,"fad":5279,"169":5280,"\\':":5281,"781":5282,"Ġ\\\"/":5283,"ĠAND":5284,"08054624":5285,"'\\":5286,"527":5287,"870":5288,"917":5289,"Th":5290,"ware":5291,"xlog":5292,"1036":5293,"alf":5294,"band":5295,"xfffffc":5296,"601":5297,"ĠScan":5298,"Ġstrncasecmp":5299,"pcStackY":5300,"mnopqrstuvw":5301,"JKLMNO":5302,"Ġasprintf":5303,"ENER":5304,"abcdefghijkl":5305,"Ġflags":5306,"SYSTEM":5307,"Ġrtnl":5308,"mnopqrstuvwxyz":5309,"abcdefghijklmnopqrstuvwxyz":5310,"RST":5311,"281":5312,"505":5313,"Ġdifferent":5314,"bol":5315,"notify":5316,"\\'.":5317,"rial":5318,"uper":5319,"Ġseek":5320,"PQRST":5321,"events":5322,"quirement":5323,"UVWXYZ":5324,"PQRSTUVWXYZ":5325,"ose":5326,"080585":5327,"fffffef":5328,"ABCDEFGHI":5329,"758":5330,"ole":5331,"faf":5332,"ĠOK":5333,"reply":5334,"Ġlib":5335,"Ġprefix":5336,"ABCDEFGHIJKLMNO":5337,"xde":5338,"Ġits":5339,"mplic":5340,"Ġtwo":5341,"Ġsession":5342,"ABCDEFGHIJKLMNOPQRSTUVWXYZ":5343,"TR":5344,"dt":5345,"ru":5346,"written":5347,"params":5348,"4024":5349,"ĠCo":5350,"abs":5351,"nodebug":5352,"080571":5353,"Ġ\\\\":5354,"DBus":5355,"770":5356,"Did":5357,"stop":5358,"etc":5359,"LEN":5360,"iod":5361,"249249":5362,"QPDFObjectHandle":5363,"Ġcharacters":5364,"CM":5365,"Col":5366,"WN":5367,"scale":5368,"Ġbound":5369,"080658":5370,"Ġdv":5371,"080770":5372,"Ġcms":5373,"081355":5374,"553":5375,"356":5376,"ubsw":5377,"0806245":5378,"aaaab":5379,"distplane":5380,"Map":5381,"eof":5382,"Ġ'+":5383,"1510":5384,"Ġ~-":5385,"ood":5386,"cbe":5387,"Ġrequired":5388,"Ġ'\\'":5389,"bcb":5390,"Ġnow":5391,"Ġreceived":5392,"dbf":5393,"549":5394,"fef":5395,"ĠSHA":5396,"Objects":5397,"https":5398,"076":5399,"bU":5400,"1038":5401,"acs":5402,"acy":5403,"080699":5404,"struction":5405,"038":5406,"416":5407,"Ġinteger":5408,"segment":5409,"tures":5410,"746":5411,"gettime":5412,"ARCH":5413,"formed":5414,"EncryptUpdate":5415,"Ġ'+'":5416,"638":5417,"_'":5418,"rdf":5419,"xae":5420,"ternal":5421,"teuid":5422,"abort":5423,"Ġthen":5424,"Ġocc":5425,"erred":5426,"addrinfo":5427,"Ġmonitor":5428,"535":5429,"Iterator":5430,"des":5431,"success":5432,"Ġerrhint":5433,"ĠTransaction":5434,"Ġrule":5435,"ĠWHERE":5436,"0806252":5437,"ESSION":5438,"Ġ'\\''":5439,"Ġfmt":5440,"080633":5441,"606":5442,"ccf":5443,"Ġparser":5444,"lar":5445,"}\\":5446,"ĠCon":5447,"Ġtarget":5448,"ĠXMP":5449,"LOG":5450,"cceeded":5451,"213":5452,"940":5453,"LAB":5454,"080678":5455,"lavor":5456,"ddf":5457,"================":5458,"005":5459,"Ġfol":5460,"888":5461,"Ġstats":5462,"Ġkar":5463,"ordin":5464,"Ġbuilding":5465,"SHA":5466,"ds":5467,"Ġip":5468,"labe":5469,"ordinate":5470,"gs":5471,"gain":5472,"edb":5473,"Ġfseek":5474,"8071":5475,"Ġmq":5476,"ADDR":5477,"NULL":5478,"finger":5479,"Ġbinary":5480,"080650":5481,"Ġ'_'":5482,"665":5483,"spn":5484,"iov":5485,"PUR":5486,"Ġchecksum":5487,"EGROUND":5488,"FOREGROUND":5489,"023":5490,"750":5491,"cfb":5492,"Ġrandom":5493,"sel":5494,"pppuVar":5495,"8077":5496,"Ġnormal":5497,"ocument":5498,"Ġworking":5499,"irectFunctionCall":5500,"fingerprint":5501,"Po":5502,"ible":5503,"ud":5504,"edd":5505,"logging":5506,"ĠSL":5507,"Ġexists":5508,"bound":5509,"kind":5510,"pattern":5511,"requirement":5512,"0807206":5513,"ĠSer":5514,"Enforce":5515,"08062492":5516,"An":5517,"LL":5518,"SH":5519,"air":5520,"Ġpipe":5521,"089":5522,"track":5523,"080657":5524,"Ġmal":5525,"ffffffc":5526,"Ġchanged":5527,"fsck":5528,"Config":5529,"ĠProcess":5530,"aded":5531,"Ġferror":5532,"xclu":5533,"080706":5534,"08277":5535,"002844":5536,"529":5537,"SR":5538,"Ġ{\\":5539,"trate":5540,"printfacet":5541,"ixer":5542,"bbcdc":5543,"Ġsrun":5544,"ĠOp":5545,"helpers":5546,"Ġsrunner":5547,"Unexpected":5548,"eae":5549,"ln":5550,"microdesc":5551,"1044":5552,"352":5553,"Ġnr":5554,"00000014":5555,"Ġ\"..\"":5556,"Ġrcu":5557,"369":5558,"081496":5559,"Ġgeoip":5560,"Ġlevel":5561,"Testing":5562,">%":5563,"546":5564,"ĠCreate":5565,"nodes":5566,"ĠDirectFunctionCall":5567,"ĠInterrupt":5568,"elements":5569,"412":5570,"532":5571,"runtime":5572,"080724":5573,"Ġinterface":5574,"download":5575,"From":5576,"8079":5577,"562":5578,"errposition":5579,"constant":5580,"processed":5581,"initialized":5582,"Received":5583,"SION":5584,"Ġpe":5585,"rewrite":5586,"080819":5587,"545":5588,"551":5589,"08050508":5590,"constraint":5591,"names":5592,"596":5593,"59083":5594,"rivile":5595,"dynstr":5596,"930":5597,"Date":5598,"EV":5599,"oot":5600,"ĠpLVar":5601,"080725":5602,"ability":5603,"eef":5604,"tached":5605,"monitor":5606,"backup":5607,"CODE":5608,"ĠcreatePQExpBuffer":5609,"690":5610,"circuits":5611,"dca":5612,"writing":5613,"367":5614,"769":5615,"Ġ:\\":5616,"Ġstrndup":5617,"certificate":5618,"circuitmux":5619,"ĠappendStringInfoChar":5620,"maxlen":5621,"1234567890":5622,"ĠTransactionId":5623,"8080":5624,"pppcVar":5625,"bucket":5626,"362":5627,"556":5628,"eader":5629,"pppppppiVar":5630,"ĠLockBuffer":5631,"PG":5632,"So":5633,"503":5634,"Ġhigh":5635,"567":5636,"coder":5637,"ĠGetUserId":5638,"958":5639,"bro":5640,"truncate":5641,"cookie":5642,"1512":5643,"memory":5644,"Initial":5645,"Ġyaml":5646,"Ġnamespace":5647,"419":5648,"0821":5649,"Ġsrc":5650,"mechanism":5651,"269":5652,"1004":5653,"049":5654,"xaf":5655,"GetAt":5656,"Ġmultiple":5657,"010":5658,"fbf":5659,"Ġimplement":5660,"Ġ00":5661,"include":5662,"ffa":5663,"Ġrelay":5664,"keyp":5665,"ĠAF":5666,"FindObjects":5667,"Ġraise":5668,"Cle":5669,"DU":5670,"Document":5671,"bind":5672,"gic":5673,"udio":5674,"080663":5675,"289":5676,"489":5677,"080581":5678,"Ġprofile":5679,"Ġonion":5680,"Space":5681,"UG":5682,"dce":5683,"tl":5684,"Ġpage":5685,"rapper":5686,"after":5687,"ĠUtil":5688,"ĠScanKey":5689,"clause":5690,"ĠpFStack":5691,"Ġ[--":5692,"080919":5693,"cdb":5694,"Ġexpect":5695,"Ġauto":5696,"priority":5697,"Back":5698,"ebe":5699,"lk":5700,"losing":5701,"002":5702,"Ġreserved":5703,"extract":5704,"ĠCheck":5705,"Ġcreated":5706,"521":5707,"coplanar":5708,"Ġtri":5709,"Ġcouldn":5710,"333":5711,"checksum":5712,"080593":5713,"Reset":5714,"worker":5715,"itional":5716,"smartlist":5717,"Ġtermios":5718,"VB":5719,"nan":5720,"080732":5721,"unexpected":5722,"80491":5723,"libsvn":5724,"ĠOut":5725,"IDR":5726,"Ġparent":5727,"TIMEOUT":5728,"Resource":5729,"Ġresponse":5730,"Ġwal":5731,"0807199":5732,"Ġmount":5733,"ĠapppuStack":5734,"Meta":5735,"066":5736,"Ġrege":5737,"Ġguard":5738,"Ġsum":5739,"251":5740,"2002":5741,"Ġneeds":5742,"%'":5743,"Pending":5744,"Random":5745,"ske":5746,"Ġdefined":5747,"reject":5748,"Ġvici":5749,"Ġslice":5750,"287":5751,"ccd":5752,"extend":5753,"019268":5754,"tempt":5755,"058":5756,"TEST":5757,"dad":5758,"ful":5759,"rad":5760,"347":5761,"081308":5762,"Ġsmall":5763,"ification":5764,"skin":5765,"Ġposition":5766,"ĠXLogRegister":5767,"oci":5768,"539":5769,"hi":5770,"Ġstandard":5771,"terr":5772,"080641":5773,"303":5774,"Ġcolumn":5775,"080769":5776,"ĠCom":5777,"Ġridge":5778,"USER":5779,"XXXXXX":5780,"-\"":5781,"726":5782,"pr":5783,"Ġec":5784,"dira":5785,"eap":5786,"ircular":5787,"dirauth":5788,"Qu":5789,"['":5790,"flavor":5791,"hex":5792,"xba":5793,"revision":5794,"strn":5795,"sival":5796,"Ġoutside":5797,"database":5798,"ĠappendPQExpBufferChar":5799,"HOD":5800,"217":5801,"Ġloop":5802,"remote":5803,"ngle":5804,"Ġ\\'!":5805,"080693":5806,"ĠRE":5807,"tcpedit":5808,"Ġintro":5809,"ĠppwVar":5810,"bpsi":5811,"968":5812,"Be":5813,"pdf":5814,"991":5815,"Ġratio":5816,"tablecmds":5817,"izer":5818,"Ġskip":5819,"Ġzlemetacs":5820,"012":5821,"413":5822,"Cre":5823,"cross":5824,"trigger":5825,"8076":5826,"center":5827,"271":5828,"987":5829,"fcb":5830,"Ġ600":5831,"Ġhome":5832,"Ġ:=":5833,"ĠIf":5834,"author":5835,"Ġmean":5836,"Ġkarls":5837,"Oper":5838,"pol":5839,"ĠK":5840,"idc":5841,"tolower":5842,"ities":5843,"verbose":5844,"memcmp":5845,"ffffffb":5846,"Ġchan":5847,"sockd":5848,"endency":5849,"orizon":5850,"732":5851,"Trou":5852,"own":5853,"xab":5854,"0027":5855,"Ġgpg":5856,"Ġ'%'":5857,"266":5858,"dcf":5859,"ĠPRO":5860,"593":5861,"0806900":5862,"Ġtests":5863,"SerS":5864,"Generate":5865,"Ġvmovd":5866,"TrouSerS":5867,"pin":5868,"vbuf":5869,"ines":5870,"fine":5871,"Ġsin":5872,"Ġduring":5873,"getarray":5874,"555":5875,"eaf":5876,"ĠMark":5877,"Ġpgstat":5878,"Ġlibrary":5879,"Ġskipping":5880,"ĠScanKeyInit":5881,"eab":5882,"good":5883,"Ġpublic":5884,"Ġ\"\\\"%":5885,"depth":5886,"edf":5887,"Ġvia":5888,"orted":5889,"getattr":5890,"ĠSPI":5891,"rade":5892,"resses":5893,"Ġgetuid":5894,"08069068":5895,"Ġgenerate":5896,"ĠUPnPP":5897,"Ġdvbpsi":5898,"label":5899,"fbb":5900,"Ġar":5901,"Ġ|\\":5902,"000180":5903,"feb":5904,"ĠSh":5905,"Ġ\\\"${":5906,"065":5907,"794":5908,"Work":5909,"eaa":5910,"Ġ\"=":5911,"faa":5912,"081460":5913,"80495":5914,"apian":5915,"ĠXapian":5916,"Ġyy":5917,"Ġsysconf":5918,"rwlock":5919,"ĠdestroyPQExpBuffer":5920,"Image":5921,"PIN":5922,"TABLE":5923,"502":5924,"cef":5925,"Ġqsort":5926,"fdf":5927,"forced":5928,"Ġnal":5929,"ĠJson":5930,"411":5931,"AVar":5932,"PS":5933,"payload":5934,"scheduler":5935,"uc":5936,"081317":5937,"rection":5938,"ular":5939,"drbd":5940,"FAILED":5941,"receive":5942,"021":5943,"735":5944,"First":5945,"Illegal":5946,"gres":5947,"rum":5948,"080653":5949,"080672":5950,"alias":5951,"080717":5952,"Ġtrunnel":5953,"xbe":5954,"very":5955,"findbest":5956,"ports":5957,"Dep":5958,"Ġren":5959,"ĠBY":5960,"Ġrouterset":5961,"reserved":5962,"tun":5963,"tools":5964,"ĠCO":5965,"ĠCatalog":5966,"296":5967,"Ġleast":5968,"Pre":5969,"setdel":5970,"codec":5971,"Ġstreams":5972,"Option":5973,"dynamic":5974,"ĠProgram":5975,"goti":5976,"lexer":5977,"Num":5978,"Ġbig":5979,"leton":5980,"445":5981,"thing":5982,"547":5983,"Mechanism":5984,"Alter":5985,"Ġpolicy":5986,"ociated":5987,"CESS":5988,"RES":5989,"ĠppdVar":5990,"ppsVar":5991,"ffffffff":5992,"moved":5993,"8202":5994,"xaaaaaab":5995,"mplicial":5996,"rivilege":5997,"PAR":5998,"rename":5999,"Ġ'['":6000,"080764":6001,"Ġboth":6002,"referred":6003,"rigger":6004,"mission":6005,"Tag":6006,"cbd":6007,"hte":6008,"10000000":6009,"8078":6010,"080676":6011,"regate":6012,"dcb":6013,"Ġerrdetail":6014,"spect":6015,"url":6016,"20030":6017,"Ġsuccess":6018,"POSE":6019,"Gen":6020,"mixer":6021,"slice":6022,"Ġlook":6023,"Ġus":6024,"nto":6025,"ĠFor":6026,"006":6027,"onym":6028,"ties":6029,"080842":6030,"275":6031,"08141":6032,"392":6033,"Ġclosing":6034,"ocation":6035,"Ġsleep":6036,"Ġ50000":6037,"10074":6038,"496":6039,"Ġsecond":6040,"ĠAt":6041,"ither":6042,"Ġsetvbuf":6043,"ritable":6044,"Ġcurve":6045,"CORE":6046,"madd":6047,"mount":6048,"Ġignoring":6049,"1448":6050,"080748":6051,"00012":6052,"263":6053,"329":6054,"Ġattr":6055,"pgid":6056,"facets":6057,"694":6058,"998":6059,"Trigger":6060,"xad":6061,"Ġ.\"":6062,"Ġ199":6063,"Ġcoplanar":6064,"MET":6065,"mension":6066,"Array":6067,"DER":6068,"SO":6069,"VN":6070,"itrate":6071,"pwVar":6072,"080677":6073,"506":6074,"080818":6075,"olute":6076,"029":6077,"ĠIgnoring":6078,"MPEG":6079,"routerlist":6080,"918":6081,"RSA":6082,"Ġunsupported":6083,"Ġfetch":6084,"080659":6085,"unspec":6086,"fcd":6087,"Ġseq":6088,"plVar":6089,"descriptors":6090,"ĠExecInit":6091,"Waiting":6092,"Level":6093,"DEX":6094,"HEN":6095,"XML":6096,"tle":6097,"343":6098,"baf":6099,"Ġinsert":6100,"Ġmmap":6101,"395":6102,"Ġother":6103,"992":6104,"PATH":6105,"blob":6106,"Ġlocaltime":6107,"sider":6108,"xcd":6109,"onoi":6110,"080812":6111,"Ġsetrlimit":6112,"082788":6113,"ritical":6114,"ASS":6115,"*'":6116,"Got":6117,"Ġroot":6118,"present":6119,"Description":6120,"456":6121,"Use":6122,"Ġ**___":6123,"080642":6124,"080740":6125,"00022":6126,"351":6127,"399":6128,"579":6129,"ANT":6130,"mptyset":6131,"guards":6132,"purl":6133,"sqlite":6134,"roperty":6135,"Ġtemporary":6136,"METHOD":6137,"If":6138,"Len":6139,"ections":6140,"Ġcstring":6141,"6624":6142,"Ġgeteuid":6143,"ALTER":6144,"FACT":6145,"Ġoverflow":6146,"Atom":6147,"chroma":6148,"1090":6149,"timed":6150,"ĠMem":6151,"ĠIPv":6152,"Ġsigemptyset":6153,"014":6154,"3080":6155,"944":6156,"dst":6157,"080673":6158,"341":6159,"Ġmd":6160,"fda":6161,"041":6162,"3544":6163,"bbf":6164,"dirvote":6165,"lags":6166,"prep":6167,"Ġ\"\\'%":6168,"STRING":6169,"%-":6170,"?'":6171,"ell":6172,"hu":6173,"ota":6174,"ĠpVar":6175,"rclient":6176,"dirclient":6177,"Ġsearch":6178,"crypted":6179,"08051449":6180,"0805179":6181,"Ġdetermine":6182,"Ġcoreutils":6183,"Try":6184,"getlen":6185,"ĠPG":6186,"record":6187,"ĠInvalid":6188,"4020":6189,"080898":6190,"using":6191,"buildroot":6192,"--------------------------------":6193,"Soap":6194,"Ġpartition":6195,"align":6196,"Ġ'*'":6197,"080852":6198,"now":6199,"379":6200,"Ġsucceeded":6201,"Ġtransport":6202,"blocks":6203,"typtab":6204,"dfb":6205,"gative":6206,"087":6207,"ĠFree":6208,"sep":6209,"Ġagain":6210,"Ġscan":6211,"ason":6212,"096":6213,"791":6214,"subset":6215,"ĠUnlock":6216,"fields":6217,"ĠCatalogTuple":6218,"924":6219,"Ġoid":6220,"cost":6221,"reason":6222,"ender":6223,"081487":6224,"ĠSEL":6225,"ĠNumber":6226,"Ġdec":6227,"creator":6228,"@@":6229,"fbd":6230,"just":6231,"tf":6232,"080645":6233,"080651":6234,"unmap":6235,"ĠappuStack":6236,"WaitFor":6237,"MS":6238,"od":6239,"Ġfull":6240,"349":6241,"xffffffec":6242,"080918":6243,"Ġopterr":6244,"support":6245,"Ġrsa":6246,"ĠMax":6247,"Ġmpg":6248,"774":6249,"@'":6250,"Inter":6251,"pred":6252,"txt":6253,"deregister":6254,"unwind":6255,"ĠppppppbVar":6256,"Ġtimes":6257,"GetSlot":6258,"elf":6259,"ĠappiStack":6260,"778":6261,"DL":6262,"fbe":6263,"pad":6264,"ether":6265,"641":6266,"ĠPKCS":6267,"linkonce":6268,"gnuc":6269,"DocumentHelper":6270,"511":6271,"Path":6272,"istream":6273,"rear":6274,"ĠapppppppuStack":6275,"dircache":6276,"INTEGER":6277,"Facet":6278,"inv":6279,"accept":6280,"Stat":6281,"Ġ'?'":6282,"ytext":6283,"Ġnl":6284,"oose":6285,"Dirty":6286,"Man":6287,"Sto":6288,"large":6289,"081433":6290,"082767":6291,"Ġproxy":6292,"GetMechanism":6293,"cpsr":6294,"herit":6295,"finalize":6296,"515":6297,"754":6298,"SIZE":6299,"ĠEC":6300,"Ġcnt":6301,"rive":6302,"Ġerrx":6303,"calar":6304,"Enabled":6305,"=\\\"%":6306,"managed":6307,"ebd":6308,"Ġrel":6309,"ppVar":6310,"080768":6311,"0804954":6312,"703":6313,"361":6314,"1006":6315,"Ġboot":6316,"569":6317,"080691":6318,"ĠRelation":6319,"Ġdescription":6320,"Ġquery":6321,"Ġidentity":6322,"6000":6323,"With":6324,"Ġpkey":6325,"inf":6326,"Ġ-%":6327,"lipped":6328,"ĠppppbVar":6329,"295":6330,"fdb":6331,"ĠEOF":6332,"ĠNO":6333,"ORT":6334,"ĠpaVar":6335,"928":6336,"finity":6337,"Ġbarrier":6338,"trace":6339,"Ġ'@'":6340,"strtol":6341,"fcf":6342,"statistics":6343,"LogMessageFatal":6344,"035":6345,"big":6346,"drop":6347,"nam":6348,"Ġph":6349,"08158":6350,"Ġsuper":6351,"279":6352,"fee":6353,"bolic":6354,"Ġauthority":6355,"bandwidth":6356,"Worker":6357,"Ref":6358,"bde":6359,"ker":6360,"Ġflo":6361,"Ġcontent":6362,"Ġclu":6363,"subject":6364,"765":6365,"ĠTEXT":6366,"boot":6367,"Ġvpmadd":6368,"SAGE":6369,"0805177":6370,"eeds":6371,"beginscan":6372,"938":6373,"hour":6374,"rot":6375,"ccb":6376,"difi":6377,"verage":6378,"ĠTABLE":6379,"ground":6380,"Ġsetpgid":6381,"generic":6382,"Descriptor":6383,"TPM":6384,"Oops":6385,"Private":6386,"Sample":6387,"Ġaspect":6388,"080718":6389,"Ġsizeof":6390,"relation":6391,"prepare":6392,"transform":6393,"12345678901234567890":6394,"gt":6395,"Ġind":6396,"cols":6397,"377":6398,"Instruction":6399,"462":6400,"vide":6401,"script":6402,"StringBuffer":6403,"081003":6404,"Ġfields":6405,"Ġdoesn":6406,"Ġentries":6407,"Ġproperty":6408,"Dis":6409,"Equal":6410,"QL":6411,"Red":6412,"phash":6413,"080838":6414,"Ġorder":6415,"finished":6416,"Ġparsing":6417,"0805146":6418,"tcpreplay":6419,"Ġmono":6420,"CREATE":6421,"Ġbr":6422,"ingle":6423,"080762":6424,"8864":6425,"xdd":6426,"561":6427,"legacy":6428,"rerr":6429,"onent":6430,"ropping":6431,"00014":6432,"267":6433,"787":6434,"Ġtotal":6435,"reading":6436,"49249249":6437,"Ġsimple":6438,"dynarray":6439,"026":6440,"910":6441,"Ġprecision":6442,"080716":6443,"xffffffdf":6444,"Ġts":6445,"Ġzhandler":6446,"ayout":6447,"detach":6448,"432":6449,"Tran":6450,"void":6451,"zsh":6452,"lopt":6453,"Ġman":6454,"373":6455,"ĠSIZE":6456,"ddd":6457,"Ġ*___":6458,"comm":6459,"buffers":6460,"Ġreplication":6461,"736":6462,"ACK":6463,"Frame":6464,"ctive":6465,"ffset":6466,"redundant":6467,"Ġfloor":6468,"exclu":6469,"lop":6470,"amd":6471,"Ġremaining":6472,"aly":6473,"589":6474,"365":6475,"559":6476,"sph":6477,"Ġmemchr":6478,"izing":6479,"PURPOSE":6480,"Ġrename":6481,"277":6482,"0804952":6483,"ĠpgVar":6484,"createNew":6485,"single":6486,"DigestUpdate":6487,"extrainfo":6488,"Ġsummary":6489,"origin":6490,"309":6491,"080887":6492,"shmem":6493,"557":6494,"ckname":6495,"memdup":6496,"093":6497,"recv":6498,"virtual":6499,"954":6500,"SESSION":6501,"789":6502,"Ġallocation":6503,"template":6504,"Didn":6505,"Queue":6506,"SERT":6507,"cape":6508,"ecf":6509,"661":6510,"Ġextension":6511,"diffmgr":6512,"multistream":6513,"Subsession":6514,"crosscert":6515,"%.":6516,"516":6517,"DES":6518,"ĠFound":6519,"463":6520,"Ġorg":6521,"Ġzh":6522,"servers":6523,"Ġquote":6524,"Ġadded":6525,"skeleton":6526,"523":6527,"ice":6528,"tty":6529,"ĠY":6530,"Ġround":6531,"Ġchang":6532,"interface":6533,"Ġdirserv":6534,"Length":6535,"broad":6536,"Ġfamily":6537,"507":6538,"0805614":6539,"comment":6540,"Ġsetsockopt":6541,"pppppuVar":6542,"0805126":6543,"swap":6544,"Only":6545,"rupt":6546,"ĠSELECT":6547,"*>":6548,"517":6549,"nv":6550,"ward":6551,"ination":6552,"Ġass":6553,"xea":6554,"479":6555,"092":6556,"centrum":6557,"FACTOR":6558,"531":6559,"8083":6560,"Have":6561,"]:":6562,"dacc":6563,"gec":6564,"Ġpcap":6565,"style":6566,"Ġll":6567,"Ġ32":6568,"ĠCR":6569,"affc":6570,"ness":6571,"neighbor":6572,"Ġdimension":6573,"8005":6574,"angulate":6575,"ECTION":6576,"Ġresource":6577,"Action":6578,"HE":6579,"cript":6580,"Ġ18":6581,"080752":6582,"unregister":6583,"943":6584,"ogg":6585,"Ġwithin":6586,"numeric":6587,"892":6588,"fil":6589,"image":6590,"wall":6591,"Ġ=>":6592,"Ġrewind":6593,"080671":6594,"080746":6595,"081431":6596,"home":6597,"Ġparameters":6598,"Ġframes":6599,"ĠorgQhull":6600,"NV":6601,"SC":6602,"fill":6603,"pem":6604,"orm":6605,"1003":6606,"993":6607,"relpath":6608,"Environment":6609,"Ġzleline":6610,"ĠafStack":6611,"xaaaa":6612,"Ġrefused":6613,"Ġmallopt":6614,"710":6615,"ICAT":6616,"flict":6617,"iate":6618,"Ġfeof":6619,"643":6620,"share":6621,"adbw":6622,"585":6623,"Ġtimestamp":6624,"tablespace":6625,"ayer":6626,"Ġ\"</":6627,"Thread":6628,"TIMEOUTFACTOR":6629,"strndup":6630,"CD":6631,"Latch":6632,"bs":6633,"efb":6634,"rd":6635,"writer":6636,"Ġplugin":6637,"285":6638,"00035":6639,"isEnabled":6640,"981":6641,"faaf":6642,"cccc":6643,"467":6644,"075":6645,"Ġenable":6646,"variable":6647,"****************":6648,"Policy":6649,"ĠInterruptPending":6650,"isEnabledFor":6651,"BL":6652,"switch":6653,"Ġdocument":6654,"endscan":6655,"xfffe":6656,"Ġprotocol":6657,"api":6658,"08051258":6659,"PageDocumentHelper":6660,"\\'\\'\\'\\'":6661,"PES":6662,"RVar":6663,"Valid":6664,"ieee":6665,"0008":6666,"sequence":6667,"stri":6668,"ĠCD":6669,"Ġhull":6670,"082770":6671,"BufferDirty":6672,"ift":6673,"08051290":6674,"Ġpathbias":6675,"identifier":6676,"819":6677,"857":6678,"cmsg":6679,"pgr":6680,"yes":6681,"305":6682,"682":6683,"745":6684,"negoti":6685,"dcd":6686,"565":6687,"Ġconstraint":6688,"mergec":6689,"relid":6690,"pkt":6691,"CRL":6692,"Ġidx":6693,"NOWN":6694,"echo":6695,"imate":6696,"nThe":6697,"Ġ\"{":6698,"Ġreason":6699,"aces":6700,"8090":6701,"602":6702,"397":6703,"Ġmemarea":6704,"description":6705,"oreign":6706,"Dependency":6707,"422":6708,"dbb":6709,"delay":6710,"charpp":6711,"1008":6712,"DATA":6713,"00023":6714,"getnext":6715,"xffffffea":6716,"concat":6717,"ists":6718,"2001":6719,"finite":6720,"Chunk":6721,"ĠinvalidInstruction":6722,"Ġdownload":6723,"Ġpmaddwd":6724,"ĠinvalidInstructionException":6725,"lVar":6726,"rp":6727,"080713":6728,"Ġ100000":6729,"785":6730,"rant":6731,"ĠMedia":6732,"ĠMembers":6733,"counting":6734,"Report":6735,"ntinue":6736,"reshold":6737,"Temp":6738,"imal":6739,"lg":6740,"Ġ...\"":6741,"Ġpic":6742,"Ġglobal":6743,"Ġsched":6744,"642":6745,"Ġtyp":6746,"ĠapcStackY":6747,"opened":6748,"ifstream":6749,"titles":6750,"Parameter":6751,"ĠMarkBufferDirty":6752,"QVar":6753,"sStack":6754,"ĠpAVar":6755,"389":6756,"fdd":6757,"urity":6758,"Ġerrors":6759,"Ġconvert":6760,"1084":6761,"ILTER":6762,"selem":6763,"MO":6764,"Ġlocale":6765,"seconds":6766,"080601":6767,"080719":6768,"795":6769,"ĠURI":6770,"ignore":6771,"HTTP":6772,"aborting":6773,"332":6774,"nFatal":6775,"sch":6776,"ttp":6777,"wb":6778,"Ġreject":6779,"ppppuVar":6780,"simplicial":6781,"297":6782,"xee":6783,"667":6784,"Ġsem":6785,"080682":6786,"ĠDSA":6787,"licies":6788,"Ġfollow":6789,"Ġzhalloc":6790,"676":6791,"Next":6792,"hw":6793,"Ġsoftware":6794,"443":6795,"00026":6796,"000100":6797,"Ġ1000000000":6798,"Ġtop":6799,"Ġstrp":6800,"lists":6801,"082763":6802,"Define":6803,"Ġpointer":6804,"have":6805,"xx":6806,"chunk":6807,"382":6808,"Ġlines":6809,"shu":6810,"Ġ\"%.":6811,"builder":6812,"Ġdeleted":6813,"iction":6814,"ĠUsage":6815,"queues":6816,"UTH":6817,"ENTRY":6818,"two":6819,"Ġregex":6820,"698":6821,"Ident":6822,"NE":6823,"Ġhidden":6824,"dda":6825,"Ġdest":6826,"80492":6827,"usable":6828,"associated":6829,"Child":6830,"Build":6831,"ABCDEFGHIJKLMNOPQRSTUVWXYZabcdefghijklmnopqrstuvwxyz":6832,"015":6833,"window":6834,"Ġ;'":6835,"0823":6836,"2070":6837,"5020":6838,"mpt":6839,"947":6840,"uplot":6841,"792":6842,"reallocarray":6843,"errupts":6844,"425":6845,"978":6846,"mk":6847,"Ġwritten":6848,"381":6849,"605":6850,"Ġbox":6851,"08056161":6852,"08056183":6853,"ĠPort":6854,"495":6855,"scription":6856,"Ġadding":6857,"layer":6858,"08628":6859,"Program":6860,"ĠLook":6861,"multiple":6862,"Missing":6863,"Obj":6864,"]'":6865,"eight":6866,"Ġev":6867,"Ġ%*":6868,"080712":6869,"080788":6870,"80519":6871,"ĠCONF":6872,"10030":6873,"882":6874,"371":6875,"rase":6876,"061":6877,"696":6878,"Ġzalloc":6879,"13818":6880,"bably":6881,"Ġimplemented":6882,"ĠOutput":6883,"617":6884,"ring":6885,"tems":6886,"307":6887,"080792":6888,"902":6889,"909":6890,"xffffffef":6891,"081484":6892,"ĠEvent":6893,"eek":6894,"Ġzwarn":6895,"Shared":6896,"312":6897,"ken":6898,"Ġunt":6899,"446":6900,"080735":6901,"949":6902,"ĠSocket":6903,"082742":6904,"Ġencode":6905,"syslog":6906,"warnx":6907,"unittest":6908,"970":6909,"Of":6910,"into":6911,"0049":6912,"show":6913,"0805532":6914,"domain":6915,"brk":6916,"userpass":6917,"Conn":6918,"Ġauthentication":6919,"Ġpos":6920,"Ġoperand":6921,"OH":6922,"mday":6923,"poll":6924,"Ġpk":6925,"385":6926,"00011":6927,"ĠSH":6928,"669":6929,"coming":6930,"sigsetjmp":6931,"compile":6932,"typeinfo":6933,"calc":6934,"srv":6935,"cvt":6936,"Appender":6937,"mergecycle":6938,"964":6939,"IE":6940,"MENT":6941,"istringstream":6942,"pipe":6943,"chain":6944,"Ġfm":6945,"Ġdon":6946,"Ġcolor":6947,"647":6948,"ĠClosing":6949,"081305":6950,"..\\":6951,"dential":6952,"Interrupts":6953,"Ġresolve":6954,"going":6955,"simplex":6956,"323":6957,"Wh":6958,"Ġiter":6959,"Ġscheduler":6960,"Ġwc":6961,"582":6962,"registered":6963,"apps":6964,"allenge":6965,"++++":6966,"Ġmonotime":6967,"059":6968,"616":6969,"ppppiVar":6970,"080652":6971,"743":6972,"vider":6973,"RODU":6974,"080697":6975,"peer":6976,"Files":6977,"Ġwaiting":6978,"covery":6979,"Operation":6980,"NOT":6981,"Native":6982,"fp":6983,"ght":6984,"ntuple":6985,"4096":6986,"649":6987,"isinf":6988,"ĠPEM":6989,"ĠPMU":6990,"566":6991,"here":6992,"Ġless":6993,"Ġconfigured":6994,"013":6995,"655":6996,"Field":6997,"PK":6998,"Pass":6999,"oh":7000,"080728":7001,"782":7002,"xffU":7003,"Ġconver":7004,"DTS":7005,"Ġonline":7006,"types":7007,"ISO":7008,"Ġtuplestore":7009,"ntuples":7010,"Cer":7011,"Ġdefin":7012,"441":7013,"080704":7014,"ĠppppbStack":7015,"Ġqhull":7016,"Ġhto":7017,"memalloc":7018,"ĠLogMessage":7019,"marker":7020,"Ġvps":7021,"SignRecover":7022,"extensions":7023,"RODUCE":7024,"FILTER":7025,"Host":7026,"Range":7027,"Ġpub":7028,"challenge":7029,"0806100":7030,"080745":7031,"080808":7032,"702":7033,"989":7034,"946":7035,"Ġown":7036,"Reserved":7037,"082772":7038,"80493":7039,"796":7040,"Ġkeys":7041,"Begin":7042,"!'":7043,"7084":7044,"MAT":7045,"OIN":7046,"engine":7047,"zd":7048,"Ġpur":7049,"Ġunrecognized":7050,"1050":7051,"upg":7052,"ĠServer":7053,"755":7054,"Byte":7055,"aun":7056,"clock":7057,"dx":7058,"other":7059,"ĠStream":7060,"choose":7061,"tial":7062,"701":7063,"786":7064,"081309":7065,"1005":7066,"077":7067,"080696":7068,"Constraint":7069,"ToString":7070,"Ġsubtitles":7071,"white":7072,"xffefffff":7073,"udp":7074,"Ġ\"=>":7075,"Ġcluster":7076,"xaaaaaaa":7077,"\"[*":7078,"Item":7079,"ica":7080,"mble":7081,"live":7082,"747":7083,"363":7084,"081430":7085,"ĠPar":7086,"tail":7087,"emit":7088,"allback":7089,"08051433":7090,"curve":7091,"Ġexclu":7092,"pmVar":7093,"ĠSEARCH":7094,"ordinates":7095,"GenerateKey":7096,"></":7097,"Found":7098,"na":7099,"6800":7100,"bevent":7101,"ĠNVM":7102,"062":7103,"Ġsetup":7104,"Ġconst":7105,"ĠPQntuples":7106,"introduction":7107,"80000001":7108,"while":7109,"Ġdidn":7110,"KIT":7111,"ha":7112,"Ġsyntax":7113,"080631":7114,"magic":7115,"Ġpow":7116,"Ġdisabled":7117,"08061500":7118,"Address":7119,"route":7120,"Ġoperation":7121,"roperties":7122,"Ġbounds":7123,"Ġgpgme":7124,"AP":7125,"fed":7126,"Ġpush":7127,"stemp":7128,"080733":7129,"577":7130,"descr":7131,"Ġverify":7132,"Ġappear":7133,"canonical":7134,"Query":7135,"COR":7136,"SER":7137,"VE":7138,"ctor":7139,"naborting":7140,"rewall":7141,"too":7142,"tils":7143,"ĠCK":7144,"setnew":7145,"047":7146,"Ġstrspn":7147,"ROP":7148,"apbStack":7149,"Ġstatistics":7150,"failure":7151,"raph":7152,"cvtsudoers":7153,"3000":7154,"TE":7155,"lround":7156,"yu":7157,"Ġreal":7158,"8072":7159,"Ġcond":7160,"603":7161,"ĠCPU":7162,"Ġhi":7163,"Ġhard":7164,"Ġ\\'\"":7165,"451":7166,"Ġsele":7167,"duction":7168,"protocols":7169,"VERSION":7170,"Ġcerts":7171,"apiStackY":7172,"3080082":7173,"452":7174,"MAC":7175,"software":7176,"ngyu":7177,"080858":7178,"80518":7179,"setlen":7180,"ĠppppppiStack":7181,"081323":7182,"anonym":7183,"gname":7184,"4108":7185,"771":7186,"chengyu":7187,"Ġzsh":7188,"ĠOID":7189,"ĠRep":7190,"circuitmap":7191,"OCKS":7192,"keypair":7193,"MetaHandler":7194,"036":7195,"ling":7196,"oss":7197,"Ġser":7198,"delta":7199,"1064":7200,"1190":7201,"5410":7202,"utdown":7203,"Ġmunmap":7204,"846":7205,"ĠSR":7206,"aemon":7207,"ĠTry":7208,"Destroy":7209,"4202":7210,"password":7211,"VerifyRecover":7212,"Hidden":7213,"II":7214,"cpath":7215,"hop":7216,"ĠFOR":7217,"003":7218,"Ġduration":7219,"Ġ'!'":7220,"482":7221,"689":7222,"Ġincomplete":7223,"986":7224,"yper":7225,"foo":7226,"ĠTr":7227,"addrport":7228,"ĠIgnored":7229,"hsdir":7230,"Ġopening":7231,"Ġavail":7232,"PUB":7233,"Ġcompression":7234,"319":7235,"Group":7236,"select":7237,"Ġstill":7238,"sib":7239,"645":7240,"isnan":7241,"uncated":7242,"Ġcircular":7243,"Ġnamed":7244,"ĠTOR":7245,"Ġbegin":7246,"ĠIF":7247,"Ġactual":7248,"Ġspecific":7249,"nickname":7250,"ObjGen":7251,"056":7252,"PF":7253,"Pcr":7254,"Plan":7255,"got":7256,"Ġpmu":7257,"Ġ'$":7258,"Ġcolumns":7259,"709":7260,"need":7261,"043":7262,"lap":7263,"aes":7264,"597":7265,"Ġyet":7266,"authority":7267,"Ġfdopen":7268,"pwuid":7269,"ntinuing":7270,"=$":7271,"Packet":7272,"ĠpppvVar":7273,"Ġgd":7274,"Ġ2000":7275,"5038":7276,"unref":7277,"705":7278,"945":7279,"Ġshm":7280,"procmask":7281,"Ġauparse":7282,"Ġsiphash":7283,"ReleaseBuffer":7284,"compatible":7285,"ascist":7286,"316":7287,"Ram":7288,"inbuf":7289,"Ġrevision":7290,"901":7291,"749":7292,"getmsg":7293,"393":7294,"lain":7295,"ĠRun":7296,"coreutils":7297,"ĠGetCurrent":7298,"groups":7299,"Ġcorrect":7300,"ĠUnlockReleaseBuffer":7301,"Ġvpsraw":7302,"aw":7303,"bis":7304,"lac":7305,"ove":7306,"1002":7307,"ppp":7308,"Ġslot":7309,"387":7310,"9808":7311,"081318":7312,"357":7313,"996":7314,"ĠTuple":7315,"ERR":7316,"oting":7317,"08051268":7318,"ĠnodeRead":7319,"Namespace":7320,"Ġqual":7321,"moving":7322,"triangulate":7323,"absolute":7324,"ĠProcessInterrupts":7325,"Run":7326,"TF":7327,"imp":7328,"1198":7329,"atty":7330,"reader":7331,"293":7332,"299":7333,"Ġowner":7334,"Ġisatty":7335,"ĠTime":7336,"Ġassign":7337,"Ġpqsignal":7338,"Arch":7339,"Parameters":7340,"POS":7341,"Ġbus":7342,"Ġschema":7343,"Ġgood":7344,"9860":7345,"80514":7346,"046800":7347,"GetBlock":7348,"ĠOBJ":7349,"Ġinitialize":7350,"Ġwere":7351,"DependencyOn":7352,"imple":7353,"Ġpayload":7354,"080662":7355,"Ġcontents":7356,"Ġshared":7357,"Ġshift":7358,"Ġstru":7359,"Ġ.__":7360,"mds":7361,"08051766":7362,"Ġinterval":7363,"divdi":7364,"getconstarray":7365,"Backend":7366,"9804":7367,"929":7368,"Property":7369,"precision":7370,"seed":7371,"Ġecho":7372,"080789":7373,"thest":7374,"enum":7375,"Ġhttp":7376,"ĠNot":7377,"urthest":7378,"695":7379,"ĠIt":7380,"Ġalloca":7381,"usted":7382,"Ġxml":7383,"Ġcomment":7384,"08049515":7385,"Ġauthor":7386,"Commit":7387,"Attribute":7388,"ĠppppppppSVar":7389,"And":7390,"BAD":7391,"QU":7392,"Sec":7393,"git":7394,"strcmp":7395,"ĠCA":7396,"uting":7397,"ĠAdd":7398,"CTION":7399,"Ġlex":7400,"Ġblocks":7401,"postgres":7402,"OutputStream":7403,"Arg":7404,"Clear":7405,"327":7406,"721":7407,"Ġ\"^":7408,"Ġreference":7409,"Ġfill":7410,"lied":7411,"941":7412,"bern":7413,"ĠPage":7414,"Ġdecode":7415,"ebca":7416,"ITY":7417,"Ġsigprocmask":7418,"08051248":7419,"ACE":7420,"aclcheck":7421,"Ġhistory":7422,"ĠTupleDesc":7423,"756":7424,"cing":7425,"cwd":7426,"intext":7427,"ournal":7428,"left":7429,"609":7430,"liver":7431,"339":7432,"dic":7433,"08089238":7434,"xact":7435,"08084238":7436,"PMU":7437,"URE":7438,"Ġfea":7439,"Ġdomain":7440,"upload":7441,"signing":7442,"ĠXML":7443,"Ġenvironment":7444,"reachable":7445,"ĠCommand":7446,"08088768":7447,"eg":7448,"nh":7449,"nse":7450,"tell":7451,"447":7452,"Ġlang":7453,"xfU":7454,"mail":7455,"consist":7456,"662":7457,"lso":7458,"mergeset":7459,"Ġrequested":7460,"Ġnumeric":7461,"Builder":7462,"Ġhandler":7463,"355":7464,"537":7465,"823":7466,"bols":7467,"plt":7468,"pton":7469,"artup":7470,"Variable":7471,"ampl":7472,"site":7473,"strtod":7474,"080837":7475,"ride":7476,"verti":7477,"082792":7478,"dirserv":7479,"08076229":7480,"Ġmerged":7481,"supports":7482,"315":7483,"high":7484,"ii":7485,"Ġlstat":7486,"Ġ\\'_":7487,"EBUG":7488,"Content":7489,"080692":7490,"Ġenabled":7491,"LOW":7492,"Ġclean":7493,"Ġ'$'":7494,"331":7495,"974":7496,"Bit":7497,"CBO":7498,"FT":7499,"NONE":7500,"00080":7501,"2038":7502,"1111":7503,"Ġfscanf":7504,"olved":7505,"posi":7506,"analy":7507,"Ġhalf":7508,"ĠName":7509,"ldq":7510,"ĠBu":7511,"0805324":7512,"Ġchmod":7513,"ppppppuVar":7514,"ĠWarning":7515,"Ġcallback":7516,"0805496":7517,"launay":7518,"Ġsuperuser":7519,"DVB":7520,"nb":7521,"uto":7522,"Ġour":7523,"outside":7524,"Ġwadd":7525,"081486":7526,"Ġogg":7527,"Ġcircuitmux":7528,"Ġrecv":7529,"Too":7530,"pick":7531,"Ġtransform":7532,"ways":7533,"AAAAAAAA":7534,"carding":7535,"ĠOpen":7536,"Ġrendezvous":7537,"Ġpurpose":7538,"aunch":7539,"Ġfont":7540,"Ġ30000":7541,"0805052":7542,"ĠPost":7543,"Ġdep":7544,"ARY":7545,"arger":7546,"libr":7547,"TupleDesc":7548,"rtattr":7549,"fully":7550,"iving":7551,"436":7552,"fffffc":7553,"Ġdone":7554,"383":7555,"nother":7556,"ĠStem":7557,"ĠSET":7558,"emer":7559,"08078685":7560,"Finalize":7561,"pha":7562,"Ġloops":7563,"Ġvpmaddubsw":7564,"ĠUsageEnvironment":7565,"457":7566,"Ġptr":7567,"08128":7568,"1060":7569,"Ġdaemon":7570,"080865":7571,"483":7572,"ven":7573,"eak":7574,"069":7575,"Ġsent":7576,"Ġsupp":7577,"document":7578,"Ġxrealloc":7579,"FileFormat":7580,"Ġregion":7581,"history":7582,"quiet":7583,"abel":7584,"black":7585,"VerifyUpdate":7586,"Ġmkstemp":7587,"timing":7588,"whitespace":7589,"Link":7590,"SQL":7591,"[]":7592,"nu":7593,"vis":7594,"ĠStart":7595,"loaded":7596,"Ġlame":7597,"setin":7598,"geom":7599,"3224":7600,"291":7601,"Ġsegment":7602,"START":7603,"Ġcomplete":7604,"Ġstarted":7605,"media":7606,"Ġbugs":7607,"08051836":7608,"IPv":7609,"ĠINTRODUCE":7610,"Ġsymbol":7611,"creatorAtom":7612,"7000000":7613,"815":7614,"dStack":7615,"gory":7616,"icate":7617,"Ġkernel":7618,"oute":7619,"1120":7620,"Ġsome":7621,"080734":7622,"10034":7623,"xdb":7624,"lash":7625,"563":7626,"Ġdelim":7627,"queu":7628,"082790":7629,"ffffffd":7630,"distance":7631,"collation":7632,"08132324":7633,"455":7634,"722":7635,"Ġbridge":7636,"2800":7637,"parallel":7638,"985":7639,"getspecific":7640,"ĠpppppppbVar":7641,"ddfd":7642,"ĠTop":7643,"082793":7644,"ĠDTS":7645,"linknode":7646,"rough":7647,"ĠrecordDependencyOn":7648,"radio":7649,"upgrade":7650,"Access":7651,"Or":7652,"Oid":7653,"Ġjob":7654,"setenv":7655,"Ġagg":7656,"assph":7657,"setspecific":7658,"sizeof":7659,"081434":7660,"convert":7661,"ĠMo":7662,"otal":7663,"STATE":7664,"Ġactive":7665,"iodic":7666,"EGIN":7667,"322":7668,"613":7669,"8081":7670,"BER":7671,"Mark":7672,"Target":7673,"Writer":7674,"dat":7675,"nop":7676,"Ġunsigned":7677,"report":7678,"Ġstop":7679,"080795":7680,"should":7681,"80517":7682,"firewall":7683,"Ġproj":7684,"Timestamp":7685,"Ġdisable":7686,"08055957":7687,"Ġsamples":7688,"08072780":7689,"5000":7690,"Drop":7691,"Offset":7692,"gc":7693,"kipping":7694,"ram":7695,"Ġpattern":7696,"reater":7697,"997":7698,"793":7699,"Expected":7700,"Unrecognized":7701,"Ġnames":7702,"hostname":7703,"consdiffmgr":7704,"962":7705,"ridges":7706,"scalar":7707,"Ġ###":7708,"sect":7709,"1854":7710,"8073":7711,"Ġ']'":7712,"Ġlate":7713,"isEqual":7714,"741":7715,"0600":7716,"ummy":7717,"datalen":7718,"NoMemory":7719,"created":7720,"words":7721,"trusted":7722,"blocking":7723,"TransactionId":7724,"Metadata":7725,"ĠphVar":7726,"broadcast":7727,"ĠTupleDescInit":7728,"assphrase":7729,"/>\\":7730,"576":7731,"Do":7732,"Layout":7733,"NUM":7734,"ftime":7735,"}\"":7736,"Ġpost":7737,"storage":7738,"tent":7739,"803":7740,"Ġcos":7741,"080731":7742,"ĠPl":7743,"waiting":7744,"Non":7745,"Tr":7746,"ager":7747,"schedule":7748,"1074":7749,"Ġeither":7750,"1134":7751,"cogn":7752,"283":7753,"extended":7754,"freetuple":7755,"ĠTR":7756,"Ġconvex":7757,"ĠDir":7758,"08126":7759,"period":7760,"Ġatol":7761,"Ġtrace":7762,"LIC":7763,"80211":7764,"PageObjectHelper":7765,"mblen":7766,"NT":7767,"tect":7768,"080722":7769,"080707":7770,"683":7771,"unlink":7772,"logical":7773,"disabled":7774,"xes":7775,"ĠSIG":7776,"ĠTLS":7777,"Ġthere":7778,"080685":7779,"0805155":7780,"toupper":7781,"Ġcurrently":7782,"until":7783,"TAG":7784,"Ġstrpbrk":7785,"OperationState":7786,"ĠgdImage":7787,"eU":7788,"gy":7789,"080846":7790,"391":7791,"591":7792,"Ġgetcwd":7793,"Ġlisten":7794,"Ġ\"[%":7795,"ppppppppiVar":7796,"Ġidentifier":7797,"Binary":7798,"]...":7799,"ick":7800,"xed":7801,"Ġ::_":7802,"2024":7803,"487":7804,"687":7805,"80515":7806,"677":7807,"ĠWrite":7808,"category":7809,"Provider":7810,"routerstatus":7811,"ĠGNU":7812,"BadFileFormat":7813,"IFY":7814,"ĠDiscarding":7815,"pgrt":7816,"Ġzwarnnam":7817,"031":7818,"326":7819,"862":7820,"?\\":7821,"SUC":7822,"ldouble":7823,"ĠPTS":7824,"orport":7825,"080675":7826,"5050":7827,"ĠpppppcVar":7828,"679":7829,"Ġdiff":7830,"ĠDE":7831,"UNKNOWN":7832,"merges":7833,"08053717":7834,"downloads":7835,"ĠpeVar":7836,"TLS":7837,"brand":7838,"Ġarea":7839,"deleted":7840,"1070":7841,"1194":7842,"geoip":7843,"Ġsets":7844,"compar":7845,"meth":7846,"entrynodes":7847,"ĠGener":7848,"ĠGUC":7849,"VALID":7850,"DS":7851,"oad":7852,"Ġpart":7853,"Ġunder":7854,"080855":7855,"ĠCache":7856,"0804984":7857,"\\'.\\":7858,"atory":7859,"80513":7860,"Ġcycle":7861,"modify":7862,"5354":7863,"Ġdelay":7864,"491":7865,"ustom":7866,"static":7867,"080801":7868,"Ġevents":7869,"precated":7870,"Ġnodelist":7871,"OpenSession":7872,"aggregate":7873,"OPTIONS":7874,"XMM":7875,"ĠYou":7876,"ĠpRVar":7877,"155555":7878,"573":7879,"afy":7880,"082778":7881,"Ġprobably":7882,"ngest":7883,"counter":7884,"Ġmkdir":7885,"eapTuple":7886,"ĠCRC":7887,"DA":7888,"Ma":7889,"PM":7890,"bort":7891,"pty":7892,"Ġ...\\":7893,"Ġpreferred":7894,"reverse":7895,"Ġsingle":7896,"Ġ[\\":7897,"080849":7898,"587":7899,"80516":7900,"10078":7901,"Ġok":7902,"ULT":7903,"ĠMake":7904,"Ġ**********":7905,"minor":7906,"pathbias":7907,"Timecode":7908,"Ġsince":7909,"Critical":7910,"Flag":7911,"raction":7912,"strcasecmp":7913,"Ġ20000":7914,"681":7915,"80522":7916,"80527":7917,"0000000000":7918,"Ġqpdf":7919,"469":7920,"ĠType":7921,"Ġsecre":7922,"rectories":7923,"ulValue":7924,"CreateObject":7925,"Ġ...]":7926,"Ġmessages":7927,"Ġunkbyte":7928,"received":7929,"ulValueLen":7930,"WA":7931,"rs":7932,"Ġprivilege":7933,"lots":7934,"deliver":7935,"Ġalso":7936,"1820":7937,"8098":7938,"Ġgin":7939,"allocation":7940,"581":7941,"Ġcmsg":7942,"setde":7943,"ateway":7944,"licit":7945,"how":7946,"ĠUnknown":7947,"ĠValue":7948,"ĠexprType":7949,"nvm":7950,"757":7951,"Top":7952,"mmap":7953,"Ġpw":7954,"1048":7955,"Ġremote":7956,"attached":7957,"\\\".\"":7958,"885":7959,"797":7960,"ape":7961,"Ġalgorithm":7962,"800013":7963,"8000400":7964,"2304":7965,"capture":7966,"Ġauthdir":7967,"ResourceOwner":7968,"DEBUG":7969,"GROW":7970,"Header":7971,"IME":7972,"Last":7973,"ern":7974,"ĠKey":7975,"tul":7976,"ĠfStack":7977,"Ġlayer":7978,"ITH":7979,"Ġmodifi":7980,"Ġjust":7981,"ewma":7982,"psStack":7983,"RICT":7984,"33333333":7985,"poly":7986,"library":7987,"oadError":7988,"Ġcmsghdr":7989,"alt":7990,"Ġcost":7991,"asse":7992,"80525":7993,"may":7994,"mapping":7995,"sure":7996,"2005":7997,"1148":7998,"Ġallow":7999,"digests":8000,"::~_":8001,"IGEST":8002,"Ġcontaining":8003,"Load":8004,"language":8005,"Ġcreating":8006,"ĠTupleDescInitEntry":8007,"Ġpwbox":8008,"found":8009,"picture":8010,"qs":8011,"uous":8012,"upper":8013,"watch":8014,"Ġunits":8015,"stance":8016,"Ġflush":8017,"Ġdsa":8018,"080743":8019,"Ġinc":8020,"3220":8021,"080913":8022,"visible":8023,"Code":8024,"height":8025,"printpoint":8026,"hello":8027,"licationSlot":8028,"sql":8029,"Ġexceeds":8030,"limits":8031,"nid":8032,"inc":8033,"Ġwriter":8034,"0804969":8035,"lip":8036,"nex":8037,"10024":8038,"readable":8039,"display":8040,"exif":8041,"ecting":8042,"08057255":8043,"ryption":8044,"Ġrdf":8045,"condattr":8046,"Ġzlell":8047,"ĠinitStringInfo":8048,"Success":8049,"ISTS":8050,"612":8051,"lval":8052,"ql":8053,"remaining":8054,"integer":8055,"1124":8056,"ecca":8057,"ĠcStack":8058,"672":8059,"8001":8060,"ENC":8061,"ĠPQresult":8062,"080802":8063,"Ġtrack":8064,"08056073":8065,"Support":8066,"707107":8067,"Ġpriority":8068,"exclude":8069,"Ġdefinition":8070,"SUCCESS":8071,"052":8072,"832":8073,"936":8074,"Written":8075,"same":8076,"zle":8077,"Ġabuf":8078,"4034":8079,"481":8080,"each":8081,"767":8082,"08055485":8083,"Ġconstruct":8084,"ĠMA":8085,"ava":8086,"Extension":8087,"Ġaction":8088,"CLEAR":8089,"Ġsecure":8090,"ĠMyDatabase":8091,"Endian":8092,"icient":8093,"negotiate":8094,"Ġsecret":8095,"022":8096,"032":8097,"321":8098,"421":8099,"423":8100,"DF":8101,"PKCS":8102,"gre":8103,"vacuum":8104,"009":8105,"80509":8106,"Ġwmove":8107,"080714":8108,"xbfU":8109,"llw":8110,"Ġhorizon":8111,"673":8112,"080681":8113,"08066188":8114,"ĠLogCritical":8115,"apply":8116,"ĠINTEGER":8117,"InternalFailure":8118,"=\\'%":8119,"Ġpollfd":8120,"oggle":8121,"011":8122,"IAL":8123,"Lg":8124,"OL":8125,"Public":8126,"USAGE":8127,"Writing":8128,"jnp":8129,"pXVar":8130,"stor":8131,"Ġ\"@@":8132,"Ġ14":8133,"Ġrecogn":8134,"Ġapppp":8135,"lize":8136,"Ġtruncated":8137,"Ġmicrodesc":8138,"xdfU":8139,"995":8140,"472":8141,"vided":8142,"ROUP":8143,"Ġorig":8144,"086139":8145,"Ġnodes":8146,"jnpr":8147,"835":8148,"Json":8149,"Tor":8150,"ader":8151,"cid":8152,"lbuf":8153,"lace":8154,"mtime":8155,"sor":8156,"writable":8157,"0863":8158,"standard":8159,"Ġgreater":8160,"Ġsbyte":8161,"080721":8162,"ĠCMS":8163,"convex":8164,"istic":8165,"forma":8166,"sections":8167,"ottom":8168,"circid":8169,"application":8170,"material":8171,"video":8172,"consistent":8173,"0000000000000":8174,"SEC":8175,"Upnp":8176,"[__":8177,"rVar":8178,"Ġ\"&":8179,"080763":8180,"273":8181,"80520":8182,"policies":8183,"xeb":8184,"082779":8185,"Ġ--%":8186,"0807625":8187,"Progress":8188,"Ġnegative":8189,"channels":8190,"Ġpsllw":8191,"20202020":8192,"ĠJOIN":8193,"REQU":8194,"emeral":8195,"051":8196,"DROP":8197,"Min":8198,"System":8199,"eval":8200,"xof":8201,"Ġpu":8202,"reference":8203,"intr":8204,"2019":8205,"Ġfp":8206,"1860":8207,"Ġgist":8208,"080703":8209,"Ġcircuits":8210,"Ġstrftime":8211,"777":8212,"Ġavfilter":8213,"086130":8214,"MEM":8215,"Ġmeaning":8216,"656":8217,"Boot":8218,"OUS":8219,"priv":8220,"activ":8221,"libevent":8222,"ised":8223,"ĠpppppuStack":8224,"setgid":8225,"7650":8226,"693":8227,"675":8228,"ĠAC":8229,"available":8230,"compose":8231,"Ġpsadbw":8232,"LIST":8233,"AVC":8234,"yleng":8235,"rupted":8236,"ĠTrspi":8237,"895":8238,"TL":8239,"dated":8240,"rfc":8241,"tst":8242,"Ġ01":8243,"degen":8244,"turb":8245,"Ġfascist":8246,"080759":8247,"080797":8248,"080859":8249,"\\'::":8250,"unner":8251,"gnuplot":8252,"lave":8253,"andatory":8254,"Ġgetpwuid":8255,"Ġzfree":8256,"ĠHS":8257,"Ġpassed":8258,"foreign":8259,"binary":8260,"walker":8261,"Ġaclcheck":8262,"Ġattrs":8263,"Ġrewinding":8264,"formance":8265,"851":8266,"956":8267,"=`":8268,"fffc":8269,"trix":8270,"Ġform":8271,"Ġlz":8272,"00020":8273,"80526":8274,"xbff":8275,"10070":8276,"ĠPrint":8277,"Ġabove":8278,"Ġkeyword":8279,"Ġreply":8280,"Certificate":8281,"CP":8282,"_.":8283,"ncy":8284,"Ġitems":8285,"10104":8286,"60084":8287,"Ġinclude":8288,"10060":8289,"addset":8290,"addarg":8291,"aterial":8292,"476":8293,"080683":8294,"ants":8295,"Ġpmaddubsw":8296,"ĠSpec":8297,"ĠSHM":8298,"yperplane":8299,"cdiff":8300,"syntax":8301,"uuid":8302,"Ġplay":8303,"1114":8304,"Ġvote":8305,"Ġwidth":8306,"080736":8307,"00030":8308,"907":8309,"setting":8310,"nelt":8311,"lockfile":8312,"Ġsigaddset":8313,"COMM":8314,"Ġmerging":8315,"Ġinitialization":8316,"Recovery":8317,"ĠAFD":8318,"969":8319,"MIN":8320,"bffc":8321,"dw":8322,"itu":8323,"ook":8324,"DATE":8325,"erate":8326,"Ġscale":8327,"Ġcontinue":8328,"449":8329,"905":8330,"080957":8331,"Ġstrtod":8332,"fifo":8333,"Ġsuch":8334,"Ġenc":8335,"ĠHB":8336,"Ġconnections":8337,"Ġpair":8338,"Ġloading":8339,"Postmaster":8340,"unspecified":8341,"zshQ":8342,"PC":8343,"UID":8344,"asic":8345,"sd":8346,"uar":8347,"Ġng":8348,"Ġdh":8349,"Ġ\\'-":8350,"082771":8351,"Ġbelow":8352,"Color":8353,"080687":8354,"REP":8355,"optarg":8356,"081538":8357,"LISH":8358,"Ġdescriptors":8359,"Statistics":8360,"1140":8361,"932":8362,"Pub":8363,"nS":8364,"png":8365,"utor":8366,"zlib":8367,"Ġ11":8368,"xcf":8369,"080854":8370,"942":8371,"getenv":8372,"847":8373,"freep":8374,"461":8375,"497":8376,"Ġabout":8377,"take":8378,"082766":8379,"082787":8380,"1088":8381,"ĠUTF":8382,"Ġavcodec":8383,"Ġleft":8384,"persist":8385,"mediate":8386,"Ġneeded":8387,"frames":8388,"Ġdisk":8389,"mbly":8390,"Ġsending":8391,"plaintext":8392,"Ġrows":8393,"ĠShmem":8394,"%*":8395,"Mon":8396,"NG":8397,"OVar":8398,"hba":8399,"ipped":8400,"sll":8401,"Ġlow":8402,"ĠLink":8403,"\\'`":8404,"Ġmu":8405,"843":8406,"errmsg":8407,"571":8408,"671":8409,"082755":8410,"ĠMulti":8411,"Ġsuite":8412,"Ġstrncat":8413,"rendservice":8414,"Ġmainloop":8415,"linuxsll":8416,"Ġfollowing":8417,"Mem":8418,"OBJ":8419,"RL":8420,"Trans":8421,"bg":8422,"Ġeff":8423,"Ġgpgrt":8424,"columns":8425,"00015":8426,"081485":8427,"lane":8428,"Ġopc":8429,"471":8430,"checkfacet":8431,"Ġzterm":8432,"ĠWHEN":8433,"functions":8434,"Ġkecca":8435,"OpMessage":8436,"Reading":8437,"Local":8438,"84447":8439,"ĠppppppppppiVar":8440,"Ġkeccak":8441,"OpMessageBuilder":8442,"622":8443,"976":8444,"Video":8445,"blin":8446,"gon":8447,"Ġca":8448,"Ġtree":8449,"ship":8450,"80568":8451,"081382":8452,"profile":8453,"Ġ999999":8454,"08053874":8455,"VALUE":8456,"established":8457,"ascii":8458,"08135524":8459,"AGE":8460,"Fea":8461,"Hz":8462,"Ignoring":8463,"Os":8464,"cmux":8465,"ish":8466,"restore":8467,"Ġrev":8468,"algorithm":8469,"strap":8470,"080737":8471,"ĠPre":8472,"Ġgetting":8473,"duce":8474,"compression":8475,"ressed":8476,"Ġ]\"":8477,"Ġnumbers":8478,"ĠHeapTuple":8479,"ĠGroup":8480,"compressed":8481,"attributes":8482,"Ġsignatures":8483,"PARAM":8484,"shufb":8485,"912":8486,"952":8487,"Batch":8488,"sup":8489,"tN":8490,"Ġ30":8491,"082002":8492,"Ġeh":8493,"pared":8494,"80508":8495,"anded":8496,"3530":8497,"xda":8498,"must":8499,"ĠEn":8500,"Ġextended":8501,"signatures":8502,"071":8503,"Ġrm":8504,"08125":8505,"crep":8506,"Ġmetadata":8507,"Intel":8508,"passwd":8509,"audio":8510,"many":8511,"Parallel":8512,"dlc":8513,"Ġchannels":8514,"Ġiteration":8515,"WAIT":8516,"ĠSHMQueue":8517,"875":8518,"ahead":8519,"mi":8520,"ures":8521,"Ġarg":8522,"Ġreplace":8523,"pppiStack":8524,"Ġangle":8525,"Ġ48000":8526,"alpha":8527,"EDGE":8528,"080863":8529,">>::~":8530,"983":8531,"80534":8532,"fast":8533,"842":8534,"Ġstrsep":8535,"andby":8536,"697":8537,"Ġsepar":8538,"081001":8539,"Ġyytext":8540,"byname":8541,"configured":8542,"REAM":8543,"Ġneighbor":8544,"Points":8545,"enticate":8546,"voronoi":8547,"08137344":8548,"[=":8549,"hdlc":8550,"~'":8551,"2040":8552,"aline":8553,"Ġ'~'":8554,"080833":8555,"lica":8556,"ĠSize":8557,"INDEX":8558,"07595":8559,"1144":8560,"10001":8561,"Debug":8562,"linklist":8563,"package":8564,"LIB":8565,"Ġpermission":8566,"Ġcert":8567,"sufficient":8568,"Ġzlemetaline":8569,"Sequence":8570,"Ġintroduction":8571,"ĠJsonb":8572,"Ġsuccessful":8573,"Redo":8574,"analyze":8575,"Audio":8576,"RANT":8577,"Wrap":8578,"gnore":8579,"osite":8580,"Ġ15":8581,"Ġfsync":8582,"80529":8583,"bfile":8584,"763":8585,"Ġnone":8586,"Ġenlarge":8587,"sockaddr":8588,"08050498":8589,"Directory":8590,"Look":8591,"methods":8592,"IZED":8593,"olean":8594,"strict":8595,"466":8596,"Main":8597,"Rate":8598,"don":8599,"ient":8600,"zstd":8601,"|--":8602,"Ġ-_":8603,"Ġanother":8604,"Ġsync":8605,"Ġdns":8606,"settime":8607,"0805019":8608,"ReScan":8609,"dirserver":8610,"ĠDW":8611,"ContextCreate":8612,"ĠExecClear":8613,"ĠExplain":8614,"ĠOPTION":8615,"Ġattributes":8616,"Ġseeking":8617,"ĠServerMedia":8618,"ĠExecClearTuple":8619,"Active":8620,"Bo":8621,"DP":8622,"Partition":8623,"bidden":8624,"cU":8625,"empl":8626,"pBVar":8627,"Ġunsetenv":8628,"respon":8629,"Ġest":8630,"Ġremember":8631,"silk":8632,"atial":8633,"080702":8634,"607":8635,"lias":8636,"080921":8637,"Ġ\\'--":8638,"Ġdetail":8639,"477":8640,"rescale":8641,"ANG":8642,"08184":8643,"running":8644,"Ġcommands":8645,"Ġrot":8646,"Record":8647,"tunnel":8648,"Stopping":8649,"PKIX":8650,"radiotap":8651,"BEGIN":8652,"Null":8653,"Using":8654,"java":8655,"mware":8656,"vec":8657,"xid":8658,"edata":8659,"stime":8660,"10088":8661,"ABLISH":8662,"080661":8663,"\\\".\\":8664,"Ġnocache":8665,"Ġexternal":8666,"errprint":8667,"063":8668,"umn":8669,"starting":8670,"4007084":8671,"ĠAudio":8672,"irmware":8673,"Unwrap":8674,"expression":8675,"Ġxstrdup":8676,"tempp":8677,"ESTABLISH":8678,"ĠAlloc":8679,"Multiple":8680,"UnwrapKey":8681,"626":8682,"826":8683,"839":8684,"DO":8685,"EO":8686,"Global":8687,"SV":8688,"istr":8689,"volume":8690,"Ġpending":8691,"ĠFloat":8692,"ĠFunc":8693,"toc":8694,"attempt":8695,"settempp":8696,"10044":8697,"082758":8698,"9660":8699,"Encoding":8700,"Ġlastval":8701,"pibfile":8702,"Copyright":8703,"Ġvisible":8704,"ĠUPnPProvider":8705,"ĠEXISTS":8706,"053":8707,"859":8708,"Play":8709,"Rule":8710,"TEXT":8711,"ale":8712,"Ġforce":8713,"080742":8714,"080864":8715,"rote":8716,"0804956":8717,"0804903":8718,"ĠSysCache":8719,"0805665":8720,"575":8721,"ĠUser":8722,"Unit":8723,"apcStackY":8724,"Ġperiod":8725,"Parse":8726,"ĠORDER":8727,"OBJECT":8728,"313":8729,"533":8730,"NAL":8731,"csum":8732,"kill":8733,"det":8734,"1021":8735,"cont":8736,"Stmt":8737,"ĠCouldn":8738,"setattr":8739,"080933":8740,"consider":8741,"ĠSystem":8742,"473":8743,"errorMessage":8744,"StrTest":8745,"ĠPQerrorMessage":8746,"ĠMemoryContextReset":8747,"08063914":8748,"jsonb":8749,"GetAttr":8750,"ĠXLogRegisterData":8751,"Ġarr":8752,"uclibc":8753,"POSIX":8754,"ĠMyDatabaseId":8755,"057":8756,"311":8757,"8082":8758,"Base":8759,"Der":8760,"Socket":8761,"Util":8762,"duration":8763,"Ġematch":8764,"2044":8765,"reached":8766,"2260":8767,"00019":8768,"ename":8769,"dim":8770,"ĠSVN":8771,"465":8772,"duplicate":8773,"Ġspeed":8774,"objects":8775,"Ġpresent":8776,"sessions":8777,"ĠQPDFPageDocumentHelper":8778,"08062820":8779,"earing":8780,"normalize":8781,"Requested":8782,"ExprContext":8783,"ENERAL":8784,"filler":8785,"Ġhtonl":8786,"Ġservent":8787,"assembly":8788,"ĠSysCacheGetAttr":8789,"429":8790,"966":8791,"Over":8792,"XD":8793,"jor":8794,"1138":8795,"Ġfre":8796,"content":8797,"Ġwould":8798,"080709":8799,"080853":8800,"00027":8801,"unix":8802,"80528":8803,"direction":8804,"ĠPRI":8805,"Ġtcp":8806,"082776":8807,"ĠDesc":8808,"SEI":8809,"BufferFor":8810,"ĠOn":8811,"iobuf":8812,"vari":8813,"086132":8814,"Proxy":8815,"Ġmechanism":8816,"evp":8817,"HOME":8818,"ĠPROG":8819,"Ġvmovdqu":8820,"GetSlotList":8821,"Bytes":8822,"REQUEST":8823,"499":8824,"Prece":8825,"fre":8826,"lq":8827,"wrapper":8828,"Ġ@":8829,"Ġuid":8830,"trn":8831,"080751":8832,"xffffffdc":8833,"841":8834,"Ġhandshake":8835,"Ġatt":8836,"ĠPIN":8837,"istable":8838,"475":8839,"apuStack":8840,"grpid":8841,"hashtable":8842,"ĠOS":8843,"Outgoing":8844,"Buf":8845,"URL":8846,"Spec":8847,"Ġdetermining":8848,"Ġallocating":8849,"Jsonb":8850,"627":8851,"PCU":8852,"graph":8853,"snapshot":8854,"ĠpQVar":8855,"ntrant":8856,"0850":8857,"Ġ\"-----":8858,"Ġretry":8859,"leve":8860,"Ġfmgr":8861,"reentrant":8862,"parsed":8863,"80500":8864,"river":8865,"081357":8866,"10090":8867,"Ġthrough":8868,"08056135":8869,"checksig":8870,"Ġprovided":8871,"ĠUnexpected":8872,"Ext":8873,"08101":8874,"allstat":8875,"ĠWITH":8876,"PUT":8877,"Ġcompute":8878,"arguments":8879,"SetContextCreate":8880,"08070524":8881,"prVar":8882,"biguous":8883,"nhm":8884,"Bitmap":8885,"Mapping":8886,"Ġngrp":8887,"Precedes":8888,"SetContextCreateExtended":8889,"727":8890,"GIC":8891,"gw":8892,"ral":8893,"Ġxt":8894,"ĠKEY":8895,"1200":8896,"8075":8897,"0804992":8898,"08048270":8899,"081425":8900,"045020":8901,"eeded":8902,"072":8903,"ĠAV":8904,"Ġonce":8905,"workspace":8906,"username":8907,"Ġcommit":8908,"pppppppiStack":8909,"081537":8910,"ĠEND":8911,"langinfo":8912,"08068477":8913,"Ġextract":8914,"Column":8915,"ĠCatalogTupleUpdate":8916,"GetMechanismList":8917,"ĠMAX":8918,"WrapKey":8919,"ĠAllocSetContextCreateExtended":8920,"Derive":8921,"Ġxtrerr":8922,"CF":8923,"Ġparamtab":8924,"Ġgap":8925,"Ġsyn":8926,"4040":8927,"ĠCH":8928,"ĠNUM":8929,"Ġtmp":8930,"492":8931,"LogLevel":8932,"paths":8933,"Delay":8934,"ofstream":8935,"circuitbuild":8936,"Ġ\"<%":8937,"0805141":8938,"Ġfilesystem":8939,"Ġelementary":8940,"icalize":8941,"Ġexclusive":8942,"PUBLIC":8943,"Argument":8944,"ĠPQresultStatus":8945,"725":8946,"922":8947,"BLA":8948,"ICE":8949,"SIG":8950,"TH":8951,"Vi":8952,"horizon":8953,"hemeral":8954,"patch":8955,"schema":8956,"Ġnto":8957,"ĠpOVar":8958,"Ġ\"**":8959,"ĠpprVar":8960,"Ġmid":8961,"ephemeral":8962,"067":8963,"Ġsel":8964,"ĠAD":8965,"775":8966,"Ġmapping":8967,"Ġfunctions":8968,"Ġposi":8969,"Ġ2019":8970,"Ġexecute":8971,"CAP":8972,"symbolic":8973,"reachability":8974,"911":8975,"Agg":8976,"MOCK":8977,"RENT":8978,"Wal":8979,"bps":8980,"lam":8981,"1098":8982,"Ġstyle":8983,"Ġfatal":8984,"Ġflipped":8985,"2894":8986,"meas":8987,"illegal":8988,"light":8989,"Ġmat":8990,"80540":8991,"external":8992,"..%":8993,"Ġexpand":8994,"ALL":8995,"Ġtypes":8996,"Ġvpmu":8997,"Ġspecification":8998,"psprintf":8999,"08055653":9000,"pppserial":9001,"Ġlanguage":9002,"Ġprivileges":9003,"ĠFunction":9004,"427":9005,"773":9006,"GB":9007,"Hook":9008,"Text":9009,"lr":9010,"real":9011,"1118":9012,"1130":9013,"Ġdrm":9014,"Ġwhere":9015,"080889":9016,"async":9017,"080999":9018,"oted":9019,"08076778":9020,"AVE":9021,"Ġtransaction":9022,"CLU":9023,"overlap":9024,"ownercheck":9025,"hibern":9026,"dentials":9027,"519":9028,"522":9029,"913":9030,"Up":9031,"UES":9032,"Wrapper":9033,"sis":9034,"Ġsf":9035,"ali":9036,"080729":9037,"080796":9038,"ĠCIRCUIT":9039,"0804835":9040,"ĠpppppppppiVar":9041,"bext":9042,"before":9043,"Ġhad":9044,"Increment":9045,"8120":9046,"ppppppiVar":9047,"previous":9048,"Ġcombin":9049,"08077088":9050,"intersect":9051,"Ġquota":9052,"Shmem":9053,"513":9054,"PRI":9055,"oke":9056,"arly":9057,"ĠpdStack":9058,"amp":9059,"1150":9060,"ABASE":9061,"Ġsort":9062,"tors":9063,"7068":9064,"Ġmicro":9065,"ĠTIFF":9066,"08107":9067,"Ġbuilt":9068,"routerinfo":9069,"ghdr":9070,"cesses":9071,"summary":9072,"members":9073,"Ġmsghdr":9074,"Ġsigning":9075,"045118":9076,"Initializer":9077,"RESP":9078,"Ġpossible":9079,"anonymous":9080,"716":9081,"BD":9082,"IA":9083,"MON":9084,"oronoi":9085,"Ġsave":9086,"1009":9087,"newfacets":9088,"Ġdelta":9089,"Ġruntime":9090,"Ġmove":9091,"Ġexport":9092,"sockname":9093,"versions":9094,"Ġ\"-->":9095,"ĠVAL":9096,"Ġrepalloc":9097,"ĠBufferGetBlock":9098,"3000082":9099,"ĠBufferGetBlockNumber":9100,"099":9101,"433":9102,"435":9103,"GET":9104,"Total":9105,"fter":9106,"fallback":9107,"grep":9108,"sb":9109,"Ġeven":9110,"Ġrestore":9111,"erce":9112,"rease":9113,"080883":9114,"\\'.\"":9115,"080926":9116,"spname":9117,"20020":9118,"08108":9119,"08268":9120,"Ġaccounting":9121,"ĠRIFF":9122,"iterate":9123,"Ġknown":9124,"Ġatof":9125,"VERIFY":9126,"Ġstrtoull":9127,"DigestFinal":9128,"Ġview":9129,"cvd":9130,"Ġinsertlinknode":9131,"UpnpDevice":9132,"-\\":9133,"632":9134,"869":9135,"Pid":9136,"bitrate":9137,"lc":9138,"vance":9139,"opfamily":9140,"rodata":9141,"2110":9142,"80512":9143,"Ġtolower":9144,"ĠPacket":9145,"Ġtls":9146,"Coordinates":9147,"dirs":9148,"ĠAL":9149,"commen":9150,"ĠURL":9151,"quote":9152,"cally":9153,"Assign":9154,"080803":9155,"Channel":9156,"circs":9157,"Ġiovec":9158,"08054318":9159,"ĠINDEX":9160,"Ġbandwidth":9161,"Ġpeer":9162,"SoapOutgoing":9163,"15555555":9164,"commended":9165,"437":9166,"Ad":9167,"BU":9168,"EP":9169,"fatal":9170,"uce":9171,"udo":9172,"Ġunable":9173,"ffix":9174,"2030":9175,"ĠLO":9176,"Ġgr":9177,"Ġ%%":9178,"080828":9179,"80564":9180,"Ġcipher":9181,"08143":9182,"about":9183,"locks":9184,"exists":9185,"ĠEnd":9186,"entries":9187,"097":9188,"keymap":9189,"GetObject":9190,"Ġencrypted":9191,"ĠRemove":9192,"replication":9193,"Ġpool":9194,"!!!!":9195,"CEIL":9196,"ĠInternal":9197,"%%\\":9198,"Receiver":9199,"ĠdefGet":9200,"ĠTrying":9201,"polygon":9202,"836":9203,"961":9204,"Class":9205,"Foreign":9206,"Slice":9207,"eren":9208,"ib":9209,"{\\\\":9210,"~~":9211,"dead":9212,"nthe":9213,"edbc":9214,"step":9215,"Ġday":9216,"baaa":9217,"eta":9218,"080790":9219,"80533":9220,"80563":9221,"ĠprintfPQExpBuffer":9222,"tain":9223,"Ġdiffer":9224,"Ġzerr":9225,"Ġassert":9226,"08051242":9227,"Ġapply":9228,"Ġcounts":9229,"ĠProc":9230,"ĠExpected":9231,"Ġusable":9232,"Ġassu":9233,"ĠLogMessageFatal":9234,"ĠFunctionCall":9235,"GetObjectSize":9236,"erencrypted":9237,"325":9238,"631":9239,"Flush":9240,"Sink":9241,"king":9242,"Ġrand":9243,"1128":9244,"lset":9245,"3818":9246,"080749":9247,"unset":9248,"80565":9249,"1007":9250,"ĠSee":9251,"more":9252,"ĠNCONF":9253,"GetSession":9254,"GetToken":9255,"rescan":9256,"resolved":9257,"Decode":9258,"//\\'`":9259,"ĠExecReScan":9260,"Ġtables":9261,"08056424":9262,"CopyObject":9263,"027948":9264,"Ġhostent":9265,"GetSlotInfo":9266,"GetMechanismInfo":9267,"Identity":9268,"Ġjobtab":9269,"Ġrmdir":9270,"GetSessionInfo":9271,"GetTokenInfo":9272,"*\"":9273,"317":9274,"One":9275,"Xid":9276,"aired":9277,"bottom":9278,"nALTER":9279,"repo":9280,"xfffffb":9281,"080794":9282,"mpi":9283,"80524":9284,"80548":9285,"080958":9286,"Ġhow":9287,"Ġexact":9288,"0912":9289,"Ġconflict":9290,"1104":9291,"LogLog":9292,"08066104":9293,"ĠResource":9294,"recovery":9295,"barrierattr":9296,"pied":9297,"Ġexecv":9298,"symbol":9299,"Ġimpaired":9300,"ĠSLang":9301,"invocation":9302,"Ġappears":9303,"5050505":9304,"donna":9305,"896":9306,"Ġeat":9307,"Ġsn":9308,"reen":9309,"ĠppppcVar":9310,"Ġcds":9311,"Ġbeing":9312,"ĠDIGEST":9313,"08051750":9314,"Connection":9315,"Ġweight":9316,"vertexneighbors":9317,"EncryptFinal":9318,"Execute":9319,"Parent":9320,"daemon":9321,"Ġyylval":9322,"ICATION":9323,"neltls":9324,"Ġdetails":9325,"629":9326,"811":9327,"AF":9328,"Tree":9329,"Ġave":9330,"ittle":9331,"strlen":9332,"tis":9333,"080822":9334,"7874":9335,"9814":9336,"80530":9337,"80579":9338,"xffffffbf":9339,"latest":9340,"073":9341,"Ġ:\"":9342,"ffffffa":9343,"ĠMe":9344,"quota":9345,"ained":9346,"0807450":9347,"Ġstarts":9348,"Ġ\"<--":9349,"Invalidate":9350,"executable":9351,"ower":9352,"MAGIC":9353,"DecryptFinal":9354,"ĠAlter":9355,"Ġredundant":9356,"rotate":9357,"657":9358,"731":9359,"Fetch":9360,"nstr":9361,"Ġpop":9362,"1180":9363,"0806444":9364,"bcde":9365,"10048":9366,"Ġhearing":9367,"ĠNAME":9368,"keysize":9369,"asks":9370,"html":9371,"Ġprocessing":9372,"08189":9373,"08051120":9374,"authenticate":9375,"Ġprev":9376,"Ġumasks":9377,"Timeout":9378,"ĠQhullFacet":9379,"selection":9380,"Ġmarked":9381,"Ġnetlink":9382,"Ġselected":9383,"Ġwaddnstr":9384,"#\"":9385,"459":9386,"659":9387,"772":9388,"866":9389,"Extra":9390,"dffc":9391,"ĠSt":9392,"Ġtiming":9393,"Ġpadding":9394,"2060":9395,"Ġgn":9396,"080741":9397,"uess":9398,"0804904":9399,"ili":9400,"Ġmight":9401,"80567":9402,"rigin":9403,"built":9404,"10020":9405,"10028":9406,"ĠSimple":9407,"691":9408,"dirty":9409,"appendf":9410,"ANIF":9411,"loading":9412,"ĠWal":9413,"0805123":9414,"Ġrouterinfo":9415,"Ġolsrd":9416,"channeltls":9417,"ĠSequence":9418,"Ġinitialized":9419,"Ġtuplesort":9420,"Ġprimary":9421,"positor":9422,"ĠOpenSSL":9423,"CEILING":9424,"ANIFEST":9425,"#\\":9426,"431":9427,"439":9428,"AUTH":9429,"DSA":9430,"SIGN":9431,"XLog":9432,"elog":9433,"px":9434,"palloc":9435,"chang":9436,"uni":9437,"listen":9438,"spaces":9439,"view":9440,"Ġsure":9441,"------":9442,"Ġmost":9443,"Ġleg":9444,"srunner":9445,"0811300":9446,"COL":9447,"angle":9448,"CONT":9449,"mergefacet":9450,"SignFinal":9451,"QPDFPageObjectHelper":9452,"bwf":9453,"ĠTransactionIdPrecedes":9454,"Creator":9455,"Ġdocumentation":9456,"mediaserver":9457,"greSQL":9458,"Ġputenv":9459,"1100":9460,"621":9461,"652":9462,"776":9463,"923":9464,"HP":9465,"Ptr":9466,"iflag":9467,"plot":9468,"|'":9469,"|-":9470,"Ġfinish":9471,"1054":9472,"2034":9473,"Ġdynamic":9474,"080799":9475,"00058":9476,"Ġtrigger":9477,"80566":9478,"80596":9479,"Ġtow":9480,"ĠSC":9481,"493":9482,"Ġroute":9483,"08220":9484,"080695":9485,"parseable":9486,"ailing":9487,"Ġjv":9488,"Ġexisting":9489,"transaction":9490,"Ġvpaddd":9491,"rights":9492,"ĠReleaseBuffer":9493,"Ġsymbolic":9494,"Wels":9495,"ĠSEI":9496,"Password":9497,"emitter":9498,"CBOX":9499,"Ġremembering":9500,"BufferForRedo":9501,"711":9502,"927":9503,"Full":9504,"awn":9505,"atom":9506,"flipped":9507,"Ġ24":9508,"Ġlocation":9509,"Ġfingerprint":9510,"inherit":9511,"Ġincorrect":9512,"9810":9513,"80537":9514,"beg":9515,"ategy":9516,"suite":9517,"08317":9518,"Contents":9519,"apFStack":9520,"GetInfo":9521,"08109":9522,"Ġaddresses":9523,"Change":9524,"SlotEvent":9525,"................":9526,"Ġbrin":9527,"HiddenService":9528,"superencrypted":9529,"atomic":9530,"Append":9531,"CC":9532,"IVE":9533,"pwn":9534,"Ġbro":9535,"ATSC":9536,"1158":9537,"Ġfit":9538,"toke":9539,"towc":9540,"Ġdrop":9541,"80521":9542,"80523":9543,"operation":9544,"0804829":9545,"08048394":9546,"mult":9547,"ragment":9548,"ldap":9549,"ĠTHEN":9550,"ĠALL":9551,"Logical":9552,"completed":9553,"Ġactiv":9554,"ĠWAL":9555,"Ġtesting":9556,"Ġaddressmap":9557,"ĠInput":9558,"Ġcorrupted":9559,"Ġrol":9560,"WaitForSlotEvent":9561,"1234567890123456789012345678901234567890":9562,"Ġpmuldq":9563,"ĠSpecify":9564,"pwnam":9565,"8084":9566,"RECT":9567,"nF":9568,"pkey":9569,"ui":9570,"cacc":9571,"Ġreturns":9572,"Ġfu":9573,"itable":9574,"Ġ8000":9575,"ceil":9576,"80544":9577,"ypmod":9578,"Ġos":9579,"Ġdecoding":9580,"expire":9581,"Ġoptional":9582,"ĠQUtil":9583,"Counter":9584,"RAM":9585,"LAGS":9586,"prepend":9587,"ĠRelationGet":9588,"ĠGroupsock":9589,"Ġnocachegetattr":9590,"ĠResourceOwner":9591,"799":9592,"926":9593,"HS":9594,"IPT":9595,"VD":9596,"gist":9597,"hase":9598,"lon":9599,"2028":9600,"2090":9601,"1840":9602,"080708":9603,"unattached":9604,"Ġlongjmp":9605,"Ġstrcspn":9606,"vio":9607,"Ġzone":9608,"ĠOUT":9609,"ĠpiStackY":9610,"Ġfinding":9611,"Ġchannelpadding":9612,"primary":9613,"08072612":9614,"08075027":9615,"Manager":9616,"vertised":9617,"+%":9618,"831":9619,"915":9620,"973":9621,"LT":9622,"Script":9623,"fx":9624,"nC":9625,"yytext":9626,"Ġpclose":9627,"edac":9628,"Ġ\"__":9629,"Ġ'|'":9630,"080715":9631,"ĠCREATE":9632,"2750":9633,"ench":9634,"ĠShow":9635,"Ġdev":9636,"oked":9637,"Ġstrnlen":9638,"Ġgetrlimit":9639,"0190":9640,"ĠLogError":9641,"strongest":9642,"08163":9643,"postmaster":9644,"80000002":9645,"devices":9646,"bounds":9647,"ĠXLogRegisterBuffer":9648,"thingy":9649,"Ġlooking":9650,"Ġchanging":9651,"813":9652,"977":9653,"BAS":9654,"Dump":9655,"Help":9656,"Match":9657,"eet":9658,"pvStack":9659,"Ġiss":9660,"nths":9661,"ĠField":9662,"Ġ12":9663,"ATURE":9664,"2018":9665,"Ġsw":9666,"serialize":9667,"Ġattach":9668,"ĠExit":9669,"ldb":9670,"sums":9671,"bdae":9672,"Ġisw":9673,"692":9674,"dirparse":9675,"ĠDS":9676,"Ġorigin":9677,"destination":9678,"ellow":9679,"ĠCurrentResourceOwner":9680,"Ġchecking":9681,"Ġsysinfo":9682,"0806475":9683,"Location":9684,"DecryptUpdate":9685,"Ġgenerated":9686,"okenize":9687,"ĠNov":9688,"Collation":9689,"Clean":9690,"Ġuntokenize":9691,"apbStackY":9692,"712":9693,"Wrong":9694,"^'":9695,"dU":9696,"fun":9697,"ium":9698,"ically":9699,"nc":9700,"wav":9701,"zed":9702,"Ġsigned":9703,"Ġ*:":9704,"inner":9705,"1094":9706,"intern":9707,"Ġfew":9708,"ppdVar":9709,"toString":9710,"Ġscript":9711,"allowed":9712,"Ġdrive":9713,"080836":9714,"Ġlarger":9715,"ĠCpp":9716,"00067":9717,"Ġinf":9718,"ĠauStackY":9719,"escape":9720,"Ġself":9721,"0805208":9722,"ĠMB":9723,"08068489":9724,"0806208":9725,"ases":9726,"ĠLogical":9727,"0807611":9728,"Ġaug":9729,"ropy":9730,"fixture":9731,"Ġesac":9732,"stampt":9733,"Ġtcsetattr":9734,"08072533":9735,"615":9736,"RED":9737,"Ġlower":9738,"080804":9739,"ĠFA":9740,"retry":9741,"Ġevery":9742,"Ġstorage":9743,"0805148":9744,"Ġavio":9745,"Ġdropping":9746,"Ġcont":9747,"080710":9748,"2728":9749,"Ġinside":9750,"849":9751,"889":9752,"Ġlonger":9753,"082777":9754,"secure":9755,"PLC":9756,"08116":9757,"relkind":9758,"Ġprograms":9759,"08051859":9760,"xfdffffff":9761,"Module":9762,"080941":9763,"DigestInit":9764,"CheckOpMessageBuilder":9765,"08076550":9766,"Ġrole":9767,"closed":9768,"Ġautomat":9769,"Ġauthorization":9770,"Ġrecognized":9771,"zshQs":9772,"ĠCppUnit":9773,"699":9774,"751":9775,"bar":9776,"vfs":9777,"Ġplease":9778,"Ġpred":9779,"Ġ13":9780,"ored":9781,"Ġglob":9782,"080876":9783,"00044":9784,"mpeg":9785,"0804918":9786,"unsupported":9787,"80538":9788,"Ġcrc":9789,"ĠCONN":9790,"6666":9791,"keygen":9792,"dbg":9793,"082773":9794,"9560":9795,"Login":9796,"08183":9797,"ĠRAND":9798,"ulated":9799,"08073128":9800,"Ġmatching":9801,"Ġbug":9802,"Conflict":9803,"08064733":9804,"Nodes":9805,"08076764":9806,"Ġadjust":9807,"ĠPCRs":9808,"ĠInitial":9809,"Transport":9810,"\\'\\'\\'\\'\\'\\'\\'\\'":9811,"stamptz":9812,"/.":9813,"717":9814,"816":9815,"855":9816,">'":9817,"PMT":9818,"SOCKS":9819,"Ġinotify":9820,"Ġ'>'":9821,"units":9822,"Ġmedia":9823,"081387":9824,"Reference":9825,"Ġrpc":9826,"Ġproto":9827,"ĠDropping":9828,"mitted":9829,"Unload":9830,"Ġregular":9831,"CRIPT":9832,"early":9833,"Ġanyway":9834,"efaa":9835,"FORM":9836,"Supported":9837,"Ġsymbols":9838,"ĠWavpackGetNum":9839,"Ġsettings":9840,"Limit":9841,"ASSED":9842,"CORRECT":9843,"ĠRunObject":9844,"Backends":9845,"Secret":9846,"leveldb":9847,"933":9848,"959":9849,"AES":9850,"Filter":9851,"NEL":9852,"Send":9853,"cu":9854,"ditional":9855,"mut":9856,"ov":9857,"amma":9858,"Ġengine":9859,"ATION":9860,"2064":9861,"Ġftell":9862,"Ġvasprintf":9863,"Ġaverage":9864,"ital":9865,"080834":9866,"Ġinherit":9867,"unp":9868,"fetime":9869,"logd":9870,"080912":9871,"Ġdeprecated":9872,"dircommon":9873,"ĠDo":9874,"ather":9875,"Ġexiting":9876,"ppppiStack":9877,"elm":9878,"pgrade":9879,"pret":9880,"bedf":9881,"Ġidentify":9882,"Ġsyncrep":9883,"893":9884,"CERT":9885,"Qh":9886,"TY":9887,"cart":9888,"nThis":9889,"privilege":9890,"arse":9891,"reme":9892,"2021":9893,"sit":9894,"Ġgl":9895,"Ġwide":9896,"080757":9897,"80594":9898,"042":9899,"ĠEL":9900,"andled":9901,"ĠBad":9902,"082761":9903,"appendmergeset":9904,"irtual":9905,"Exit":9906,"ĠISO":9907,"findgood":9908,"ĠapiStackY":9909,"08629":9910,"08111":9911,"ĠVoronoi":9912,"mbs":9913,"QhullFacet":9914,"PIB":9915,"Ġimport":9916,"skipfacet":9917,"NEED":9918,"8444":9919,"916":9920,"GROUP":9921,"IB":9922,"Mutex":9923,"Pair":9924,"Reader":9925,"Scheduler":9926,"mm":9927,"sv":9928,"ĠStatistics":9929,"Ġceil":9930,"shutdown":9931,"basename":9932,"881":9933,"Ġhere":9934,"ĠSu":9935,"08056344":9936,"subc":9937,"0805770":9938,"079":9939,"Remove":9940,"082756":9941,"LOB":9942,"ĠVolume":9943,"08051860":9944,"reduce":9945,"Tests":9946,"controller":9947,"Integer":9948,"XMPFiles":9949,"SignUpdate":9950,"08062334":9951,"ĠDelaunay":9952,"ĠComp":9953,"Ġecused":9954,"ĠLookup":9955,"Ġzshlex":9956,"Blob":9957,"DING":9958,"fresh":9959,"mv":9960,"ratio":9961,"rlimits":9962,"snd":9963,"some":9964,"tdata":9965,"zxd":9966,"incoming":9967,"Ġremoved":9968,"ĠList":9969,"1800":9970,"8097":9971,"080755":9972,"080782":9973,"0804917":9974,"partial":9975,"80569":9976,"setadd":9977,"Ġ700":9978,"InProgress":9979,"suid":9980,"prompt":9981,"jecting":9982,"0806494":9983,"081260":9984,"Ġlistener":9985,"Setting":9986,"Forbidden":9987,"touch":9988,"Ġperf":9989,"ĠMemoryContextDelete":9990,"UTF":9991,"SignEncryptUpdate":9992,"sockets":9993,"Ġsubstream":9994,"QhullError":9995,"DigestEncryptUpdate":9996,"movzxd":9997,"DecryptDigestUpdate":9998,"DecryptVerifyUpdate":9999}
