#version: 0.2
a r
Ġ )
Ġ (
V ar
Ġ ;
Ġ *
Ġ =
Ġ p
Ġ i
Ġ u
Ġ 0
Ġ ,
l o
a m
i n
ar am
Ġ +
c a
lo ca
loca l
Ġp aram
d e
Ġi Var
n t
Ġ local
Ġu Var
0 8
Ġi nt
e d
Ġu n
f in
Ġ {
Ġ }
de fin
defin ed
Ġun defined
u Var
08 0
Ġ -
f f
Ġi f
c h
c Var
Ġp uVar
ch ar
Ġ F
r e
U N
ĠF UN
s t
1 0
Ġ b
Ġ* *
Ġ &
Ġ "
in t
Ġ= =
0 0
Ġ !
Ġ char
Ġ! =
s e
i Var
Ġ e
Ġ 1
A T
o r
Ġu int
t r
Ġp cVar
D AT
1 4
Ġp p
: :
Ġ re
080 4
r n
2 0
t u
o u
_ _
tu rn
Ġre turn
Ġ st
080 5
t e
1 1
i d
p aram
Ġ <
tr a
l e
Ġ f
Ġ v
p p
a c
Ġ L
ff ff
o id
A B
Ġ DAT
Ġv oid
ĠL AB
ou t
Ġb Var
Ġ __
t o
Ġst d
Ġp iVar
> >
1 2
Ġ a
č Ċ
1 8
x tra
xtra out
1 3
2 4
8 0
s i
ac k
Ġe xtraout
Ġ g
l se
e r
c o
Ġ 4
i t
Ġe lse
n g
x c
in g
Ġ s
Ġg o
080 6
S t
Ġgo to
a l
St ack
Ġ d
E C
* *
lo ng
EC X
Ġ |
p uVar
a t
Ġ '
o n
Ġ %
3 0
Ġ >>
y te
3 4
1 5
2 8
Ġb yte
1 6
Ġ cVar
st r
Ġ 2
b Var
b a
Ġ' \
Ġpp cVar
Ġ w
Ġ [
Ġ 8
i le
si c
t i
Ġ co
1 7
str ing
p iVar
Ġ& &
E D
4 4
re a
1 9
t or
4 0
x ffff
p cVar
Ġf or
3 8
e c
Ġw h
Ġco de
Ġwh ile
e t
Ġp bVar
or t
o p
5 0
080 7
b le
ti on
u e
08 08
v Var
Ġ _
Ġpp iVar
n d
r r
it s
c x
Ġ l
6 4
al loca
t h
tra its
ED X
2 2
Ġ| |
n o
4 8
ba sic
Ġa uVar
5 4
s h
r int
rea k
Ġb reak
a d
long long
alloca tor
m e
Ġ 3
re e
r o
6 0
Ġ C
. _
c e
00 0
:: __
rint f
a ff
cx x
2 1
m p
Ġs Var
2 7
2 5
ou ble
Ġl Var
Ġp vVar
>> ::
0804 9
xffff ffff
2 3
P T
ca se
6 8
i l
Ġun aff
Ġ ^
l i
Ġd o
i s
u Stack
Ġb a
L E
Ġpp pp
\ '
Ġu longlong
Ġ tr
Ġi n
Ġpp uVar
r c
5 8
Ġba sic
PT R
F Var
p ar
80 4
a s
Ġ** **
Ġtr ue
I LE
lo c
ĠF ILE
u t
Ġ< <
u n
9 0
7 0
se r
2 6
b c
Ġ case
Ġ 10
p rintf
O N
re g
7 4
7 8
Ġ** *
Ġ m
9 8
Ġp FVar
9 4
at or
p tr
80 5
op er
00 00
Ġd Var
f a
Ġd ouble
par m
reg parm
0804 8
z e
re am
x f
- >
g et
oper ator
o l
sh ort
Ġ c
Ġ< =
se t
ĠC ON
C AT
p o
0 1
ĠCON CAT
g e
Ġ q
r i
0 2
f e
3 1
3 2
f c
Ġu short
Ġ" %
n e
ED I
lo g
Ġs h
ba se
si ze
v e
\ "
c Stack
st ream
2 9
b u
Ġ**** **
d c
e n
Ġa uStack
Ġ 6
Ġpppp pp
c c
x b
rr or
l l
y p
3 6
Ġ 5
s s
xffff ff
8 4
p ut
08 13
Ġq h
08 14
Ġ to
Ġ no
b e
Ġ PTR
Ġf a
Ġsh ort
10 0
rea d
5 5
Ġ 7
m a
3 3
Ġf ree
>>:: _
Ġu Stack
il ed
d is
pp cVar
Ġf Var
f d
0 4
ar t
e nd
x e
i Stack
a n
a b
8 8
am e
x ff
po se
Ġ ~
3 5
080 9
Ġb o
d i
de rr
a a
x d
Ġ tor
dis pose
ad d
Ġa p
g n
Ġ th
te st
Ġbo ol
a ble
a te
3 9
loc k
Ġno t
lo at
e x
Ġst r
3 7
-> _
I O
as ser
st ack
te r
Ġf loat
Ġst derr
v er
E S
0805 0
Ġ h
p bVar
l a
Ġ long
co n
u p
Ġ op
m u
Ġst rc
Ġ size
Ġa t
k e
pp iVar
Ġ S
m o
b b
l u
no de
c k
a e
v al
ti me
0805 6
me m
Ġf printf
s rc
th read
Ġ \'
Ġ o
# #
te x
Ġ E
Ġ P
d d
r a
d ouble
9 9
at a
Ġ* __
Ġp rintf
e xtraout
f o
n ame
5 6
e a
t ree
4 2
Ġstrc mp
i on
4 1
Ġlong double
f ree
I n
c t
ne w
ri te
Ġ operator
6 6
al loc
f i
o stream
Ġe x
Ġ N
R b
l d
s u
Ġp thread
li st
Ġf put
rn o
d Var
Ġ t
Ġe rr
[ -
b d
ec k
Ġ 9
er r
- -
0 3
Ġi s
st d
loca tion
i st
5 3
ec t
Ġ de
4 7
cx a
s p
s Var
A R
4 6
b f
u r
er rno
si gn
Ġ log
si on
80 6
e nt
yp e
7 6
asser tion
I N
d a
pp end
0805 8
Ġ \"
e e
Ġ****** *
m at
5 2
ch eck
a nd
Ġ /
f ile
e p
5 9
f or
ES I
f b
Ġap cStack
pp uVar
mu tex
w rite
Ġe rror
Ġ n
2 00
5 7
Ġfa lse
x a
0805 7
bu f
Ġfa iled
a ge
0 6
4 5
Ġo f
Ġ longlong
4 9
4 3
< <
0 9
F UN
l t
e s
08 1
Ġ T
u m
ff er
a f
st art
Ġg et
r yp
ar g
0805 9
a tu
Ġp dVar
le te
e f
. "
k it
08 3
c d
5 1
Ġpp piVar
ca n
Ġth e
o g
Ġfput s
ke y
Ġ\' %
R Y
v n
p ro
Ġ mem
w it
Ġa b
Ġ B
f n
0805 3
E R
0 7
err or
q ue
ce ss
6 9
R e
m s
v i
0805 5
o ck
c mp
d b
Ġ se
6 5
6 2
0 5
t a
Ġ r
Ġpp vVar
me nt
lo se
Ġ" \
l in
d f
= %
co de
ro m
Ġ :
at ion
xc ep
6 7
de lete
0000 000
. .
AR RY
xcep tion
e b
p c
Ġ \
08 27
ĠC ARRY
Ġp ro
p y
Ġp sVar
Ġco n
E B
ffff ff
c f
in it
f Var
Ġf ile
0808 9
Ġs vn
c b
Ġ time
Ġpp bVar
0805 2
p vVar
Ġp cStack
Ġb e
wit ch
0805 1
u ffer
C o
Ġab ort
e m
rea te
di r
fa iled
val id
le n
1 10
7 3
804 9
s c
Ġs witch
i rc
7 2
ex t
0805 4
i c
1 08
R O
in fo
## #
EB X
U L
Ġ M
6 1
4 00
Ġpppppp puVar
08 2
d up
Ġ" ###
fin i
7 9
u ll
Ġp ut
ro w
a ppend
a p
6 3
r y
j ect
or y
Ġ- -
. \
Ġd i
0806 9
Ġs u
un c
0806 8
Ġs m
Ġ A
7 7
ou ld
Ġ10 0
f printf
Ġ D
S tr
add r
g r
tion s
la g
d o
7 1
art list
de r
Ġpp puVar
t able
D T
h e
it h
for mat
th row
co m
UL L
Ġpppp piVar
re c
8 1
a sh
Ġsm artlist
Ġre ad
ms g
nt ext
: %
ve nt
Ġ set
10 4
14 0
Ġ on
0000 00
Ġop t
std out
re nt
9 6
1 20
i r
13 4
ec tion
ryp to
Ġ out
ch e
12 4
Ġ ch
ĠN ULL
S E
9 2
Ġ****** **
Ġ\" %
e xception
b ject
bu g
l s
12 8
alloca te
Ġp fVar
un lock
1 14
l y
i p
ma p
and le
irc u
Ġput s
se c
il d
Ġ U
te n
w n
7 5
si g
f s
at tr
B uffer
u lt
ge st
8 00
fa ult
Ġ or
vi ce
re rror
Ġ X
n ection
li b
q u
b er
8 6
Ġ**** *
at h
it y
13 0
Ġw ith
ss age
a v
ac e
14 4
d u
op en
0806 2
f lag
I T
ĠB IO
E x
G et
0806 0
Ġth is
Ġi Stack
Ġex it
Ġ >
Ġstd out
O R
08 5
par se
li ent
9 5
Ġ I
Ġp g
pp pp
Ġ" "
w or
10 00
Str ing
8 2
fini sh
re s
:: _
asser t
Ġd ata
L og
co mp
o t
8 7
Ġ z
de st
ircu it
mo ve
no t
t ype
9 1
25 5
Ġswitch D
case D
Ġe log
g er
ou nt
a se
p u
un k
in d
n printf
0806 1
9 3
as k
Ġp uStack
Ġst at
re ss
h t
0806 4
Ġm alloc
ar e
nt ry
ch r
c reate
c lose
n s
Co ntext
50 9
a y
al ue
F F
ca l
d ata
ce ll
18 0
i g
atu re
r pc
Ġc rypto
Ġa nd
ĠE rror
11 8
9 7
Ġpp pcVar
: "
p id
08 10
8 3
0806 5
ri p
fi g
Ġf rom
h ash
Ġa ppend
Ġ O
u s
o k
= =
al l
8 5
de sc
S T
Ġst rerror
sign al
atu s
lin e
y s
em ory
In it
13 8
-- --
Ġa l
Ġpppp uVar
i al
i z
ur rent
ar ra
unlock ed
ne l
255 19
as s
ng e
80 48
Ġ" /
8 9
ack et
Ġa dd
15 0
Ġst rn
h andle
Ġerr start
c bb
h s
Ġ ac
arra y
Ġpppppp ppiVar
u st
i o
s a
16 0
ou nd
xffffff fe
m ask
t p
q h
0806 7
SE T
G S
2 24
ou ter
u th
Ġat f
ch ed
m in
Ġs nprintf
p uStack
s ing
Ġp iStack
Ġm a
p ath
2 20
um ber
po int
08 12
ac et
ffffff f
y n
e l
p iStack
A N
ar n
xffffff f
0806 3
Ġpro cess
i f
c lient
ser t
st at
li c
08 18
me ssage
rn al
Ġ" .
ryp t
0806 6
Ġg e
emory Context
flag s
C T
ma in
p cStack
la y
Ġ R
In fo
O T
lo w
a it
O FF
i fi
Ġpp FVar
b o
Ġ y
t y
Ġopt arg
gr am
Ġfput c
Ġ" !
fin d
in e
su b
val ue
er o
v table
t v
OFF SET
de d
sp ec
10 1
UN K
15 8
Ġa s
Ex p
de x
t Var
Ġm o
p le
Ġa iStack
f rom
lo ad
I R
0813 1
Ġop en
E N
o int
Ġ W
Ġex p
Ġ> =
55 55
p FVar
14 8
80 7
t s
Ġ sig
2 000
de ta
h o
st atus
Ġa v
wor k
08 100
m on
ca che
ng th
fe ature
I D
il l
19 8
D e
ca ll
c p
17 4
O bject
Ġv alue
P L
Ġ .
A L
ser vice
0 19
un aff
le ase
ar k
ar d
m er
a in
e rnal
19 4
15 4
ou r
Ġde fault
at ch
E rror
0807 4
Ġ ]
ma nd
re f
Ġ le
S L
i que
Ġ can
Ġc lose
16 4
p er
i ze
17 0
ĠE V
e ld
2 38
an nel
18 4
lin k
op tions
deta il
m it
ĠEV P
Ġpppppp piVar
g in
ect ed
st ate
Ġb Stack
P Q
\" "
b ack
17 8
x t
di gest
s r
ac tion
16 8
c rypt
Ġt ype
ĠL og
j o
rec tor
Ġ signal
Ġap iStack
68 6
u ment
C K
f m
Ġe n
c le
Ġsu do
Ġs ock
nt ro
Ġa n
T he
ar ch
24 4
du le
ll u
f unc
0807 6
a st
ue ue
v ar
Ġp tVar
U n
p rint
r it
co nd
rip tor
A s
p g
de bug
24 8
ser ver
rector y
s ock
c er
p ort
d ate
pp vVar
Ġmem cmp
ver sion
8 000
Ġ10 00
ten v
] .
Ġerr msg
Ġp acket
Ġv er
i ter
24 0
Ġstr dup
ĠP Q
et work
ntro l
K E
18 8
4 20
e st
08 4
ar y
b Stack
u l
UN D
Exp Buffer
PQ ExpBuffer
si ve
b yte
lu sh
Ġcon nection
mo de
m alloc
80 50
m d
th unk
no wn
Ġq ueue
p t
0807 2
i ve
+ =
08 6
Ġstr chr
pp ort
Ġh ea
in valid
RO UND
Ġ& __
con nection
c py
ist er
String Info
/ %
lo b
. %
Ġ key
Ġs p
08 11
file no
CT X
/ /
o f
on e
G OT
ht tp
PL T
f put
0805 12
19 0
D ata
20 4
09 1
x it
tu re
PLT GOT
re l
fput c
8 08
co re
P D
ca te
08 080
u ti
en code
KE Y
P U
Ġst ream
Ġpppp puVar
jo in
av x
M emoryContext
bu s
10 2
Ġe vent
ĠC urrent
r ame
ex p
Ġ k
Ġe ntry
ou p
2 14
Ġl ist
Ġf i
2 30
0807 9
Ġ name
Ġ" -
co py
str dup
] [
Ġw as
b y
con fig
4 0000000
e vent
Ġ ol
M E
int ro
ur sive
Ġstrn cmp
mo ck
p l
IN IT
c ircuit
p dVar
ca t
Ġco mp
: //
m et
0807 3
p re
Ġ" :"
ould n
st derr
Ġu long
ĠN AN
ff f
Ġc ircuit
/ "
p fm
te mp
Ġop tion
Ġp ar
pro c
if y
p ack
Ġ ROUND
ĠU n
m ark
2 10
c ount
que st
ĠCurrent MemoryContext
2 34
000 1
li bc
as sign
x ec
L O
bu ild
Ġto o
N o
str o
xf e
v ed
se n
Ġopt ind
l ed
4 000
ĠLog ger
ex it
Ġappend StringInfo
ra nge
Ġn umber
sp ace
C S
s ed
Ġbyte s
str u
Ġ- >
ne xt
c re
Ġpppppp uVar
Ġ x
/ '
com mon
U B
u le
0807 0
0807 5
b x
25 6
a iled
u id
n um
C O
to k
2 08
o m
R E
Ġ' /'
:: ~
Ġ H
Ġ Re
arg ument
Ġ Q
mat ch
un ique
C h
E X
0805 11
x ac
Ġ[ -
0805 04
z ero
i me
u se
at ed
Ġm atch
Ġ test
Ġout put
de nt
Ġt Var
0000000 4
2 28
E ntry
Ġpp iStack
ct ype
s on
y st
Ġh as
our ce
c tion
Ġco m
d ing
Ġ check
ca tion
arn ing
stro y
lob al
Ġin put
Ġr outer
ra w
x bc
i re
cal loc
a ve
25 8
con n
bu ffer
K e
ĠS UB
e ter
cer t
: \
00 000
10 000
tex t
10 5
id ge
L ist
con st
2 68
Ġ% .
08049 0
ra nd
Ġerr finish
case cmp
con f
2 64
sen su
M P
u b
Ġb ut
Ġge tenv
Ke y
lo t
l ation
Ġread ing
Ġst art
t c
qh ull
ab led
E n
sensu s
n ce
a ng
p a
Ġol sr
Ġp oint
se s
it ion
handle r
I ON
Ġ". /
Ġp l
cle ar
p e
2 54
F ile
m ed
Ġpro gram
I G
PD F
Ġ ed
Ġerr code
mo dule
Ġfi eld
== ==
P KEY
L ock
Ġre a
short buf
ĠA S
U M
P ro
D E
Ġv p
0 08
3 00
a che
Ġ V
Ġw rite
0807 8
Ġ2 00
t m
Ġf unc
end l
mp ty
Ġ ne
Ġap r
F IN
Ġl ine
I d
or d
u re
n er
Ġb u
byte s
Ġf close
Ġdi rectory
2 50
Ġstrc py
lu s
M e
a bc
0808 5
Ġa pp
Ġsp ec
th is
X Var
Ġfor mat
Ġ" <
Ġin valid
u ard
de f
Ġmem ory
nt ain
f bc
er s
80 54
ĠS SL
E xception
Ġ find
Ġpp uStack
Ġn etwork
08049 8
qu al
rec ursive
in sert
ffff f
10 6
re nd
fa il
A C
O p
FIN I
ve l
t ls
Ġappend PQExpBuffer
Ġa u
S et
C an
s can
sh a
Ġpp sVar
ou s
F or
4 30
co ding
xc c
Ġs printf
i x
en er
a uth
Ġb y
ct l
44 0
pro cess
w d
\' \
E G
g lobal
mp l
he l
Ġpl Var
Ġs nd
ta g
op tion
p date
in dex
Ġf acet
Ġ" [
Ġno de
cp lus
F ailed
C ache
de fault
0806 25
Ġop tions
28 4
Ġ are
---- ----
a il
In valid
ver ity
i gn
Ġdo es
ma x
in k
08049 6
lic y
se verity
Ġint ernal
u C
uC libc
an ce
a g
p sVar
0805 00
a nt
0805 14
Ġp alloc
s k
loca te
Ġf ound
Ġ argument
up le
27 0
> "
Ġc reate
w Var
g id
Ġprocess Entry
iz ation
08 19
2 94
S A
0805 17
ig h
Ġp XVar
0805 32
re t
08049 9
0805 15
t ing
Ġm ust
ex ec
iz ed
pppp pp
ca p
Ġdi gest
ar ri
ent ry
e k
w ait
200 000
wor d
019 140
Ġa to
Ġstr ing
pport ed
m al
r un
o ff
Ġcon fig
pfm lib
RO R
ri v
Ġle ngth
k nown
IN G
ip e
ĠUn able
2 60
Ġi t
4 24
0805 18
xffffff fc
12 34
op t
08049 3
is sing
2 80
r outer
27 8
b r
28 8
par t
44 4
Ġ G
X X
ap cStack
Ġma x
.. .
>> >
o st
s age
add ress
Ġ new
Ġde sc
ba d
de stroy
08049 5
can not
08 26
pu sh
10 3
Me ssage
t ou
08049 4
24 9
f acet
Ġ calloc
nt er
Ġch annel
Ġz le
y m
su lt
arri er
u ser
0806 22
yst em
Ġch ild
le ngth
Ġ ff
Ġu se
56 78
xff f
h ull
Ġin it
080 98
reg ister
F Stack
ad o
EX T
p k
08 15
re p
Ġre alloc
dir p
Ġa f
ch an
AB LE
ro nt
0 17
o bject
al id
li mit
arg v
lo ok
0808 4
Ġstr casecmp
ser tion
r an
string stream
ado be
e le
Ġun it
Ġpppppp iVar
Ġh b
te m
desc riptor
i a
mem b
Ġp ass
8 20
Ġrea ched
pro to
ĠE xec
1234 5678
Ġc pu
Ġal locate
Ġff lush
a nge
Ġl i
80 9
ti mer
sp i
- '
Ġ j
Ġ" --
> \
Ġver sion
Ġ' -'
t ed
w char
tu ple
80 58
get The
P ER
getThe Log
] \
Ġon ly
ĠT S
C ON
r ed
pp ing
ifi ed
3 74
Ġhea der
f ront
0807 7
ct ed
mer ge
Ġ" _
27 4
08049 7
or g
805 6
di o
Ġsig action
: '
EC T
r oup
ct x
4 34
Ġs ys
xffffff c
ch annel
ll x
A l
p fVar
08 17
Ġre c
c rypto
lu gin
Ġ' :'
que ue
Ġ tra
0805 46
IN T
e ad
Ġ; \
B lock
ll d
g uard
V ER
f rame
Ġp free
Ġpppppp piStack
As sertion
Ġm et
p mu
Ġp re
W Lock
Ġu mask
20 1
Ġsh ould
c md
Ġf open
Ġadd ress
Ġk ill
lo op
o te
8 0000000
ec tor
Ġparam eter
rit ing
Ġw ait
uti ls
C on
i bu
34 4
Ġex t
t x
Ġw Var
C LE
Ġpp cStack
Ġw char
805 3
cre ment
Ġexp ected
2 18
n l
10 9
de code
co l
tr ust
M T
wit h
am ple
Ġa uth
0807 1
il y
0814 4
805 9
to pt
ĠD IR
H andle
int er
Ġpp Var
Ġe nd
Ġp o
Ġtime spec
c irc
Ġp s
3 90
xf c
o re
r op
ibu te
Ġato i
u rr
Ġ ::
8 48
UN T
Ġp bStack
Ġs q
l ass
Ġre g
pu b
m l
x y
Ġh s
T est
805 2
ĠE R
x p
ses sion
U pdate
Ġput char
0806 24
0808 7
Ġb uffer
Ġpppppp ppuVar
ac t
fi x
08048 9
ten sion
gn u
Ġp rint
34 0
CO UNT
cc urr
res sion
ter min
Ġmem move
! !
0808 1
ccurr ed
ff c
pa ir
qu ire
\" \
c s
co ntrol
Ġac Stack
Ġ call
Ġu char
am ily
0805 30
80 60
a x
V er
19 9
h er
L I
Ġ 99
su do
Ġcom mand
C Y
3 20
chr on
12 3
000000 08
il ter
xf d
0805 33
Ġd bus
8 90
l li
Ġp error
Ġstr tou
se nd
ti fi
T uple
a fe
s ys
xffffff fb
11 1
Ġp er
0809 2
F unc
c ould
B Var
ti ve
Ġap uStack
ate xit
T ime
Ġ8 00
b lock
n memb
be a
C PU
0813 3
de v
ĠT O
yn chron
nt ent
Ġv alid
as printf
Ġhea p
Ġs size
u te
int el
ys Cache
Ġf d
As sert
ffff fe
and sha
ĠM emoryContext
li te
gn or
Ġ #
0813 6
Assert Exception
j mp
08049 1
mo d
re co
10 0000
b arrier
0805 02
st rerror
xffffff fd
ial ize
U T
file name
look up
50 4
po licy
andsha ke
08049 2
ifi er
Ġpar se
p w
stat s
to ast
Ġco proc
T o
g h
da tu
Ġmatch es
30 4
S er
] "
datu m
mu l
r st
Ġ array
o ccurred
mp le
le vel
CLE S
n ull
f ac
08048 8
Ġd is
bo x
O P
comp are
ho d
H W
Ġ Get
\' "
com mand
PER F
lo r
ir st
CY CLES
d lt
i de
3 50
A D
ro ot
con sensus
10 7
805 1
aa a
pp bVar
4 28
V alue
2 98
805 5
c n
or mal
que nce
en abled
Ġt m
** **
uti l
0805 38
move to
12345678 9
b or
Ġth an
T ype
? ?
sp ort
ar ed
Ġsig set
A A
xffffff b
Ġ] \
Ġd up
C R
10 20
ad c
Ġh ave
e ed
11 2
er re
000 2
40 4
re move
Ġre p
erre xit
I nt
805 7
d bus
3 14
m n
ce s
I P
Ġ3 00
p lugin
Ġi d
hel p
a pp
Ġstr len
OR E
5 08
N ame
12 6
pe g
Ġ `
sign ature
0 123456789
Ġstrtou l
3 24
e w
38 4
\" :
ĠQ PDF
ran s
tifi cate
us ed
Ġcan not
n et
b ec
de toast
38 8
ol l
0813 2
su m
i cal
0808 8
igh bor
000 5
0827 6
x dc
u int
at f
riv ate
0805 01
p s
te nd
S ysCache
i es
in al
o w
Ġ range
Ġgo t
0809 1
pro gram
Ġp BVar
ynchron ization
ma ke
intro du
08 28
4 08
Ġdesc riptor
ca ta
wn er
cata log
cn f
on ce
ĠP ID
s vn
08048 7
de c
S SL
Ġ join
0814 9
Ġb fd
90 4
Ġaf ter
Ġstd in
ĠI D
D i
Re ad
3 80
Ġe s
set size
08 16
es c
Ġ si
Ġq u
Can not
22 6
Ġo ff
ĠappendStringInfo String
j peg
s ort
Ġba se
h andshake
gr oup
S ynchronization
26 2
h is
format ion
40 1
200 28
be gin
08 62
te cted
Ġg roup
0805 13
et ch
5 34
0805 22
Ġ service
ed ge
Ġin dex
ĠP ES
M o
Ġp wVar
4 50
C U
ge ner
Ġcpu id
end ing
0805 10
h ist
p ur
080 90
3 10
Ġ UN
Ġt able
o stringstream
de n
10 24
sign ed
08 8
ĠP MT
3 94
Ġtr n
c err
Ġ" #
stru ct
Ġre nd
xffffff d
11 5
5555 5555
0805 24
h as
Ġl ink
08048 5
0805 20
Ġm jpeg
Ġc er
0806 13
3 68
80 64
de l
Ġw e
4 60
M A
ES T
tu p
E T
out put
di ff
Ġn ull
EN T
ig ht
0806 19
080 94
le ep
reco gn
0808 3
Ġin formation
X MP
E L
Ġ} \
er ase
__ _
0805 58
12 9
5 20
08 39
ul ti
I L
3 70
Ġcon n
Ġsock et
C H
f amily
A ME
re n
Ġw arn
m b
34 8
o o
ro ng
.. ..
st er
n sport
4 54
x ml
u mp
Ġp ath
re quest
O CK
id th
or ity
Ġmem cpy
Al loc
h ea
Ġfor k
O PT
Ġdi rent
ed ia
ĠC an
Ġma ke
ip v
Ġac cess
O ut
i dent
rand om
w c
for m
08056 9
P oint
li ct
0805 44
2 90
4 64
5 40
U sage
08 33
st am
ic ture
Ġnetwork status
086 12
Ġjoin ed
6 00
C reate
0806 28
11 9
Ġco py
get c
Ġ In
c ture
Ġun ique
12 7
plugin s
Ġp r
Ġint er
Ġde tected
0805 16
a ac
Ġ server
ar get
0806 47
H T
c cess
w ipe
04 6
S ign
0805 49
Ġab Stack
unk nown
DE F
N O
Ġsq lite
Func tion
f lush
sp on
iter ator
Ġmo re
3 64
0805 94
ad ata
en crypt
Ġth at
op s
D esc
er y
ec e
sock et
rans action
n p
Ġw riting
44 8
Ġpppp iVar
R EC
Ġp m
on ion
io s
5 24
D W
p lay
li cation
or k
Ġu ser
to l
Ġh ash
5 12
n ptr
co ntext
Ġco ntain
Ġ` %
c ed
po s
ĠS tr
Ġse c
scan f
3 30
Ġmem wipe
d y
p acket
at al
0805 27
Ġspec ified
4 14
int ernal
4 38
rip tion
0 70
Ġsu b
ĠMemoryContext Alloc
H A
Ġn on
ĠM y
g ing
r t
f U
80 66
xffffff e
str tok
Ġc or
Ġon e
Ġfacet s
I S
Co m
0805 76
b bc
ba e
Ġx malloc
Ġre quest
0805 25
b ss
0805 23
ma ge
99 9
Ġstr str
Ġmo dule
** *
Ġqueue ing
H ER
5 00
Ġb lock
Ġpass wd
0805 34
20 20
58 8
20 6
end ptr
Ġex ist
introdu ce
Ġco ntrol
! "
e ar
an y
ER ROR
ĠAS N
d r
Ġb ad
Ġst ate
800 000
i mpl
n sec
Ġ Z
di rectory
fo re
Ġmo de
019 238
Ġf write
ri g
3 54
yn c
T i
d yn
el p
bc c
ex tension
Ġ"! !!
r ule
Ġre t
0805 56
WLock A
re alloc
St ream
st ore
un nel
n etwork
12 5
ur ation
recogn ized
- %
n on
s nprintf
0805 19
Ġin fo
Ġm issing
Ġi o
Ġre lation
f y
3 78
Un able
i te
rr ay
REC O
F inal
12 2
08048 6
AR G
4 78
11 6
0806 29
en coding
ĠW av
0805 84
ol d
read y
Ġb ms
13 2
> ::
Ġa ll
0809 3
0806 39
0805 68
ac c
Ġ__ _
Ġsh ouldn
8 0000
Ġfa il
A t
p ass
Ġ ...
\ \
Ġ" :%
ho st
ver tex
0805 21
Ġl ast
ched ule
0805 37
ail able
3 58
0805 74
string buf
Ġstr cat
Ġde bug
No de
4 80
u sec
Ġ $
0805 64
Ġsu pported
Ġt case
5 30
Ġ message
Object Handle
po ol
mem ber
Op en
0805 90
xffff fe
og le
20 9
Ti med
3 08
a u
Ġc ount
fi eld
08 22
804 90
proto col
25 3
ĠWav pack
op ts
Ġse nd
3 98
attr s
o s
R I
su ff
t al
Ġc lo
func tion
xffff f
exp ected
Q hull
t mp
co ntain
RECO VER
pp iStack
Ġp a
le g
t ab
Ġtime val
AB C
L AC
0805 28
th er
3 34
ide o
Di gest
si ble
ti ces
ĠuStack Y
ter m
3 28
p thread
Ġu sing
Ġf rame
Ġ Var
0805 35
li gn
f ace
ĠZ EXT
Z ero
p la
6 60
i ved
0805 50
li sh
ABC DEF
or der
stam p
5 38
ser ved
ff e
Ġsock addr
PT ABLE
Ġs afe
Ġse ction
w arning
Ġw ill
8 60
f ilter
pp er
Ġl xc
Ġin st
J UM
0805 29
Ġf irst
Log Message
cap ed
RECOVER ED
JUM PTABLE
AT E
b in
m ac
C all
[ *
0806 36
ten ded
ĠS e
L o
l x
low ed
e xtra
co lor
ĠP ro
stru cture
0805 48
0805 47
11 3
Ġ arch
Ġe nter
Ġdi r
2 0000
la st
c nt
Ġto k
b it
Ġ[ %
==== ====
0805 36
Ġfunc tion
t cp
0805 98
T I
Ġu p
0806 88
n ormal
IR CU
IRCU IT
D Var
c ce
t w
A S
it or
es sion
< /
5 60
f Stack
Ġgo ogle
0806 14
up date
ĠX Log
ĠMemoryContextAlloc Zero
? "
si de
LO CK
0808 2
Ġl append
pl an
li ce
C ount
w idth
w w
un able
mu x
co ver
ver ify
fo nt
CS D
= "
ĠL o
Log ger
Ġstrn cpy
Ġes caped
_ %
Ġ 20
n ing
UN C
3 60
Q PDF
i mu
Ġm er
l f
Ġ" :
12 1
imu m
char s
Ġy ou
4 18
o c
v ote
tr ue
ss l
T CSD
si tion
f de
0806 26
bo dy
3 18
U S
ba b
H ash
Ġ cell
part ition
S ession
x aa
mo v
S lot
0805 78
13 5
Ġ'\ \'
Ġstr l
4 0000
D ir
am ic
ĠB uffer
Ġfile s
pp ed
f dc
' :
w e
0806 23
du mp
48 6
20 2
8 28
CON N
M D
08057 7
local e
17 3
t yp
0805 60
ĠPQ get
0806 38
b w
time out
ic s
ES S
Ġdigest map
Ġan y
A lign
C E
a fc
ca st
ĠF LAC
qu i
ST ORE
Ġ-> _
0805 55
fi rst
pp piVar
i able
n ap
d it
D ec
M Var
0805 57
48 4
z v
Ġre move
0806 15
at ing
low er
de zv
08 0809
ĠE xp
dezv ous
al le
. *
N AME
ca c
po st
Align ed
Ġ" \"
cond s
5 28
conf lict
ĠMemoryContextAllocZero Aligned
. '
Re lease
F A
Ġcon sensus
v ector
test s
f name
vi r
ĠI nt
ighbor s
u ri
se arch
T ER
b j
Ġs scanf
str a
Ġ1000 000
tra ns
Ġo bject
0 60
tra nsport
.. /
% %
V AL
IG N
x mp
14 2
lse ek
Ġw rong
Ġun link
St ate
Ġo ver
j son
2 000000
g g
set temp
0 78
s q
ce l
66 6
at ive
0827 8
1000 000
Ġpppppp ppcVar
Ġexp ression
Ġpoint s
Ġu sed
Ġ' .'
Ġm b
Ġr limit
5 50
E Var
ĠO P
conn ect
16 1
xb f
b ed
Ġex tend
e ec
0805 26
Ġin v
stra int
Ġp icture
re ct
met hod
0807 44
sig handler
re lease
Ġm ay
di st
idge s
a be
m t
Ġr un
Ġal ready
5 44
Ġ J
ar ge
re lay
xd f
EN SSL
P E
g l
ser ve
ĠPQget value
>> >>
Ġpppppp puStack
8 40
24 2
80 2
ra p
Ġsock s
ĠER ROR
Un known
Ġwait pid
A dd
tr ibute
Ġs k
spon se
. __
bd f
c out
Ġc lient
8 34
I Z
s l
RO M
Ġreg ister
pl ace
s w
comp ress
p i
Ġ lseek
E M
F ILE
_ "
58 4
con struct
08068 6
P I
Ġbu ild
f ec
l ate
le ct
000 4
Ġse quence
P age
Ġun k
bc f
ang ed
-------- --------
z one
ap iStack
O K
0805 08
Ġop us
Ġoff set
4 58
8 000000
0 33
re sult
18 1
90 6
tu al
0805 59
chan is
2 15
c r
ĠOP ENSSL
ĠE N
0805 54
64 8
Ġv fprintf
0000 0000
08050 6
sock s
ec d
bd b
Ġde vice
0810 02
tok en
4 000000
4 90
Ġn um
error s
per f
T P
e mpty
08 30
0805 40
suff ix
p ic
11 7
pur pose
chanis m
c lu
p ri
te rn
Ġc ould
rit ten
L Var
Ġh elp
e qual
Ġtime out
b fe
ed a
Ġstr signal
c lass
b ff
p FStack
x ca
36 6
ir ed
000 7
lu mn
ee e
pack ed
0814 68
68 8
Ġbu f
Ġinit ial
C IRCUIT
Ġmem set
Ġstrl cpy
i as
Ġp q
re ce
to p
ĠS T
ĠP S
Ch eck
pub lic
in crement
Ġ4 00
ic ro
Ġpacket s
Ġre s
B ad
C ouldn
Ġpp pbVar
op y
abc def
u al
ch ild
l it
ca le
Ġcer tificate
I mpl
0805 43
ĠappendPQExpBuffer Str
g o
Ġc urrent
set append
O S
w arn
9 00
in put
Ġ me
08 29
08 35
xf b
and box
open ssl
Ġj son
5 54
in et
s leep
0805 88
Ġtr y
i ch
Ġ ES
0806 12
0 48
8 24
0805 39
le x
Ġw ork
Ġvp add
gnor ing
Ġadd attr
S Var
18 3
Ġw arning
08050 5
Ġarch ive
] ._
g ment
bd a
M edia
b l
b fc
15 2
n P
0806 90
point id
Ġav ailable
l xc
En crypt
ent i
r ou
Ġ** __
G E
ĠI P
4 10
Ġpppppp uStack
m ary
In dex
ac ter
mul ti
ĠSe arch
0808 6
ge n
la ng
ad a
u nt
tx n
o me
id den
0807 67
arg s
Ġsu pport
Ġinst ead
H el
Ġp MVar
Ġstr map
o fd
08 0807
Ġdata structure
AR N
ofd ay
8 44
T able
time ofday
ntent s
Ġ timer
Ġf lag
ĠO PT
A V
r m
18 2
con s
+ +
do wn
9 08
d fe
Ġm nl
Ġfail ure
Ġp EVar
ĠC h
Ġex ec
i an
ca f
13 9
99 99
08056 3
6 40
pla ne
b its
0806 27
Ver ify
17 2
Ġwh en
P ort
RO W
Ġma in
pppp piVar
= \"
Ch ar
rig ht
T ransaction
W ait
ac cess
14 5
Ġre port
13 1
sh ot
di ct
ifi c
ĠSearch SysCache
B u
0806 04
30 1
Ġrec ursive
0 28
g b
ab lish
e de
in o
al low
r rno
su pported
S ize
s m
ch o
80 68
000 6
un ion
fa e
s ystem
point s
b fd
Dec rypt
c y
r ate
ed it
22 2
Ġas n
E nd
Ġ temp
Ġun known
le ment
rc u
ma n
C opy
3 38
ac l
19 1
ser v
0809 9
Ġ; "
0 20
5 36
Ġf read
Ġd ist
sa ve
Ġio ctl
t case
Ġ" \""
Ex ec
b dc
re nce
70 4
yp h
N U
Ġ INT
Ġsys log
16 3
23 6
08056 7
Object Impl
ĠN AL
err up
ent er
Ġcopy ObjectImpl
e v
Ġv ideo
Ġge topt
Ġ" ../
15 6
D IR
b ac
ĠRe lease
18 6
Ġ\" "
Ġau dit
Ġreturn ed
24 1
08056 5
ber s
4 98
F atal
8 30
to m
tag s
R A
e ba
Ġe qual
14 3
time zone
7 00
R ep
Ġi dent
ch k
ce pt
.. ."
ĠER R
Ġcall ed
Ġm s
0814 2
08058 2
Ġargument s
U ser
th e
IN E
ĠT spi
nap shot
S ub
10 01
Ġg ener
ut ed
6 80
0805 80
2 12
XX XX
ol ve
5 48
25 7
Ġal lowed
Hel per
er rn
-> __
c or
Ġ text
chedule r
0814 7
D B
xc e
5 18
p tVar
ver se
con v
0 64
m y
Ġ[ *
Ġstr tol
Ġm any
S P
Ġp ort
to n
14 7
78 4
leg al
C A
w h
Ġ len
Ġst atus
le ted
000 28
Ġtra ns
0805 31
]. __
7 80
14 6
17 6
19 2
ip her
spec ifier
13 6
Ġpp fVar
27 2
ma ster
ok en
Ġchar acter
0805 45
Re g
Ġr ate
Ġadd r
0805 70
ta ch
p np
15 1
xff e
errn um
em bers
Ġed ge
14 1
e ger
0805 99
0806 00
gener ate
b ca
0806 20
08050 9
ist ics
module s
e fa
Ġ'\ "
atu m
8 84
f ce
ar ea
se q
ol s
t d
Ġm on
Com mand
T spi
W rite
08 38
ed c
ar m
Ġc lock
33 33
cle an
W ARN
f ca
68 4
Ġor c
10 28
60 4
AR T
a fa
33 5
Ġop topt
init ial
F OR
nt in
gnor ed
encrypt ed
S u
08048 4
be e
806 5
C L
Ġ10 000
f etch
pp cStack
0806 16
ab i
add ing
key s
network status
i e
Ġc ur
Ġ'\" '
" [
0805 42
Int ernal
ren dezvous
18 9
Co ntrol
0806 43
0807 39
us age
H O
can cel
8 98
c urrent
Ġ termin
S can
13 3
mutex attr
T his
de e
98 4
get s
ĠN o
0805 53
Ġc re
c ur
se ek
al ance
806 7
ee b
ĠM ain
default s
ca use
Ġ" *
ĠP AT
met adata
L WLockA
aa e
Ġbe fore
000000 10
De vice
Ġclo sed
5 14
v or
x fa
St art
ce lt
Ġget timeofday
Ġch unk
e fe
Ġ lookup
di rent
Ġau dio
fe ca
a ec
0805 51
13 7
sh ared
200 4
ĠQ hull
LWLockA rray
d h
node list
ĠP lease
est ablish
U R
ce nt
sc r
7 20
08 34
Ġst ack
un signed
Ġc le
la un
0 27
ac tive
0806 66
080500 20
M emory
g ed
Ġa d
Ġzle cs
plan ar
i tem
Ġp av
10 92
IN F
Ġpav gb
M et
at tern
IZ E
4 68
C ould
Ġco ntext
li cate
attr ibute
tr unnel
ri ter
TI ME
ĠMain LWLockArray
f loat
s n
am ed
Ġ" ."
Ġs Stack
Ġm k
pro xy
= \'
L e
e ded
00 4
19 5
ĠV er
14 9
Re cover
Ġpm Var
L S
08 20
Ġunk uint
5 94
c bc
Ġv ector
T M
30 2
De fault
ire ct
D R
u x
04 53
ĠQPDF ObjectHandle
i se
w ind
40 2
Ġpr Var
3 36
7 30
M M
c pp
s lot
nt h
ch ange
Ġe rrno
Ġs andbox
25 2
804 98
Ġ oper
mo te
d fc
0807 47
vi sion
7 64
22 7
me n
Ġwith out
hea der
ec b
6 54
7 28
7 60
O n
exp and
pre fix
5 80
Ġs yst
il ity
P ar
Ġe xc
15 5
xffffff a
valid ate
c fc
Ġp strdup
Ġ% -
806 3
Ġd id
ho ok
Ġrec ord
I F
e ca
y le
16 7
0807 11
08059 6
Ġcomp are
Ġv i
d ff
17 7
5 68
log ic
08059 2
call back
9 20
Y PE
Ġ mp
de crement
RY PT
ĠD e
bo ol
Ġ%. *
22 9
48 8
ut able
6 36
Ġ" $
Ġne ed
Out put
Ġz ero
20 3
Ġm ask
4 70
e fc
Ġv ar
ĠU P
LO OP
WARN ING
de a
ĠL OCK
cc c
dis able
sec tion
encode r
] ]
0809 90
to tal
Co mp
sa fe
P EG
20 7
Block s
MA X
Ġin et
**** ****
c dc
i pping
CS P
ĠLo cal
Hash table
b alance
re la
0806 64
Ġ load
ĠF ailed
ut f
Ġ AB
0806 79
78 8
cat ed
gl yph
e q
base s
cmd s
ĠUN LOCK
vir on
aa f
ĠT his
cf g
S p
re sh
Ġst rr
he ad
yn amic
Ġstrr chr
U P
a no
Ġ IN
Ġ" ::
00 1
0806 84
19 3
vi ous
7 98
18 5
24 3
Ġs ystem
ble m
98 8
08050 3
08056 2
av ed
8 38
tr l
083 15
create f
Ġ xf
Ġe lement
Ġs ym
li m
ĠD ata
re v
0805 52
0806 07
19 7
re balance
Ġb its
0806 21
0807 38
ab b
Ġi timer
40 6
a fd
23 7
Ġc l
08057 9
4 74
sp lit
ub lic
Ġsyst able
r oper
1 080
O UT
17 5
0814 0
0814 64
ĠWavpack Get
a fb
b fa
0813 07
la use
0 37
10 51
Ġt c
PD IR
u tex
Ġset locale
Pro c
5 58
un recognized
0453 68
s ym
Ġ lock
Ġ" ??
ab f
for ce
TM PDIR
8 78
8 52
[ ~
p ending
in ary
16 6
! \
w ay
000 3
Ġc md
ĠB IGN
ele ct
ĠBIGN UM
5 90
ba a
fm t
080515 91
$ {
a de
ca d
Ġpp puStack
Ġc tx
ĠStr ing
4 26
ay load
28 6
17 1
37 6
rep lay
c string
18 7
ti fy
ser ial
Ġh ost
6 68
G INE
d ns
0806 94
68 5
804 99
9 48
b ce
Ġ" \'
std in
Re lation
8 80
ti l
ĠP CR
comp at
0806 11
ĠM PEG
sec ret
0 98
n one
de p
90 3
\" .
> ::~
fe rence
0814 5
086 13
encode d
0 44
p rop
ac d
dc c
ver t
ae e
main loop
N ew
Ġb it
Ġre ce
080625 32
a ad
e ff
ĠF ROM
80 70
Ġm ulti
08056 6
Ġzle met
decode r
Ver sion
8 10
Ex tended
ĠString Buffer
5 64
8 50
ĠL ock
xe f
ur ed
Ġ"\ \
08068 9
4 17
6 64
M L
e bf
n bytes
Ġre sult
on ly
icro desc
P lease
n umber
0807 65
N ot
f ull
S h
S elect
r b
Ġre f
name space
us r
C oll
a ba
n i
Ġ tuple
se le
0814 02
SE L
ĠLocal Buffer
15 9
Ġwh ich
ret addr
ele ment
Ġitimer spec
5 74
e mp
o ver
p age
20 5
le r
Ġbe cause
58 6
time s
fn umber
Point ers
a ke
ĠL WLock
30 6
set mask
inter val
Ġs ample
mat h
4 94
U E
Y ou
000 10
23 2
Ġse conds
IP HER
i code
me q
ino de
0 68
5 70
8 54
R ece
ac f
Ġpppp p
fa lse
rip t
ĠEN GINE
a ch
Ġs ame
C urrent
C IPHER
Ġb p
it le
com mit
Ġwarn x
mac ro
ĠAB S
me meq
ĠP oint
08057 3
i m
de vice
10 30
H ol
A uth
Ġm ark
Block Pointers
ĠLocalBuffer BlockPointers
i sion
o ip
s o
34 2
fc c
Ġsec comp
7 68
ĠBuffer Blocks
Ġ":: "
2 16
Ġ term
re serve
0806 37
40 3
Ġth res
ĠT he
br idge
Handle r
clu de
t arget
Ġ******** ***
ĠPQ fnumber
of tw
off set
viron ment
oftw are
b p
c ouldn
0809 7
Ġt w
ĠO CSP
RYPT O
I X
ec c
xffffff fa
.. .\
Ġ OR
40 5
and ard
Ġvpadd w
co ll
ER T
Ġmer ge
D atum
r idge
Ġ Init
08 24
08058 9
CK F
0 74
Ġsh ow
hel per
Ser vice
0 16
se nt
Ġf cnt
Ġfcnt l
8 12
10 34
ri be
qu ery
Ġ ro
10 18
ircu its
c fe
0806 44
Ġfile no
G ener
c trl
ĠVer sion
par ser
> <
c v
ĠR SA
e re
m issing
ff b
Ġf gets
out ine
ĠC RYPTO
\' \'
ol u
bb b
rec ision
0 40
G NU
0813 4
400 000
5 10
E mpty
N D
fin al
ri es
a i
08 36
0806 09
un used
ra ng
Ġ"/ "
ĠpppppppuStack Y
m is
re set
0807 74
Ġver tex
gh i
alle l
W arning
Ġv mov
15 7
Ġl arge
xb d
ke rn
Ġ******** *
Ġmb state
A r
N umber
p rivate
si st
Ġkill ed
e fd
is o
un it
ĠE xception
for k
Ġb ack
806 9
ic i
d ab
pp FVar
Ġset ting
match es
exec uted
8 27
M IT
W e
Ġint o
10 10
Ġ1 6
ffffff fe
Ġdata base
pa uVar
c ba
ac b
16 2
19 6
Ġs o
17 9
Ġch ange
ag ed
6 10
7 08
b dd
Ġ5 00
08058 3
p h
dis k
6 50
[ %
a ed
c ipher
f getc
se lf
804 94
08057 2
0827 9
P RO
d bc
h b
0805 41
AA AA
O wner
d ae
ver tices
08050 7
ĠA l
0 25
ca a
23 5
Ġm is
P O
r v
Ġde termin
ĠU pnp
unt ime
ĠRelease SysCache
O F
S e
23 9
init ialize
qu ired
spec ific
func s
ano sleep
6 24
no te
ne xp
ĠD H
qui res
d ac
f low
Ġpp piStack
Ġs sl
0806 60
0806 46
Ġap FStack
Get Datum
Ġe mpty
Ġstd scr
54 3
Ġm in
39 6
Ġat tribute
ele m
L A
Ġd ue
hea p
8 64
m gr
se tup
Ġco re
INF O
nexp ected
e ea
Ġg ive
0806 32
0806 55
16 5
Ġz tr
Ġy our
7 90
0806 65
r up
ca e
ri me
ffffff e
exp r
ĠUP nP
08 32
Ġclosed ir
6 34
6 74
C lose
L ine
T oken
c fa
u v
par ent
ĠT or
pppppp puVar
ĠLWLock Release
0 24
5 26
contain er
6 53
8 18
A M
p bStack
Ġ" ***
at io
fe a
put s
settemp free
p op
u nd
ĠCan not
Function Call
Ġxf ree
Ġ sign
tr y
ĠD is
pub key
38 6
list ener
ĠRe ad
ĠN et
Data base
08 37
0806 34
jo b
E rr
0806 10
0807 30
70 7
lin es
Ġ"- "
5 78
nt or
er ic
0806 49
ae a
SEL ECT
d ba
ac quire
ce a
ae f
Ġdis play
6 44
c quire
Ġe xtra
ĠB N
ail ure
I ST
be st
bb d
e bc
o wner
p m
08 25
Ġ"?? ?"
9 80
= '
T A
w al
param eter
ad f
res ource
ĠUN RECOVERED
r w
r sa
le ss
art ition
sudo ers
W ord
] \'
0807 54
Ġ"% -
ĠN OT
0 90
2 19
0806 40
be b
Ġmax imum
S Y
ne ighbors
g libc
Ġ UNK
Ġi conv
ff d
80 1
set jmp
ul ate
c pu
ou gh
ĠS et
76 1
ig ger
Ġ# %
S napshot
UN RECOVERED
24 5
De lete
IG IN
T O
d fa
33 7
08058 6
LI MIT
s aved
y nt
806 2
opt ind
0 18
9 90
Ġ' ='
0807 26
ON E
Ġ"% *
6 78
B OR
I os
t itle
Ġ cache
0807 66
par e
Ġde f
Ġn et
Ġse lect
Ġac l
Ġvalue s
T C
id x
0814 04
0809 5
mem free
Ġn anosleep
ok ie
ident ity
0 30
9 60
0806 08
es ource
Ġol d
en able
0814 8
bo se
RE Q
Ġps Stack
Ġ signature
re pos
Ġb et
Ġde lete
2 0000000
7 38
c ca
z u
Ġr t
Init ialize
Ġas Stack
P ost
re q
Ġ" +
0806 56
ti m
string s
27 6
Ġdo wn
Ġch dir
Ġ .\
Ġe nt
co lumn
di v
Ġse tenv
Ġztr dup
8 94
bug s
ĠI s
K CS
P er
22 1
ro x
08056 1
08057 5
ĠT CS
Ġfile name
U C
c lo
c de
g ress
Ġ% #
000 16
Ġbe en
Ġout Node
AN D
EG ER
Ġps raw
Ġms g
a ab
35 40
ĠT est
64 6
ce e
0813 56
Ġap bStack
Ġconfig uration
Mo d
Open mode
7 34
7 40
S ection
re hash
10 40
Ġsh out
F PU
s ync
Ġb ind
xffff fd
il der
0813 0
ck et
65 14
Ġdist ance
Ġp ng
54 2
da y
Ġpa uVar
olu me
7 14
D ynamic
c ument
l an
ed ump
ro ss
58 3
Ġap fStack
08059 5
Re quest
0806 68
Ġh ex
bf b
che ma
Control Word
ynt ax
FPU ControlWord
Y Z
d dc
in do
Ġf stat
0806 30
ne ls
Exp r
indo w
Ġs r
74 2
Ġfi x
Reg ister
F ree
d de
y cle
Ġ ON
0806 06
Ġsys call
9 34
nt e
22 5
m id
24 6
as n
Ġpppppp pppppiVar
Ġstr tok
In put
file s
BOR ROW
M U
0809 6
main ing
Ġver tices
0806 18
Ġh ist
ĠS BORROW
cer ts
T S
Ġm ap
In sert
da nte
080511 80
Ġcontain s
p adding
y y
15 3
23 3
fa ec
OR IGIN
Ġcor edump
b ias
g or
tr i
0806 69
fa b
Ġth read
Ġstrcmp start
Ġspec ify
ww w
Dynamic Media
9 14
b be
c ec
Ġre quires
0806 03
be p
sn bep
d one
h int
CON F
i ver
Ġv snprintf
23 1
Ġba nd
key word
we en
Hol der
0 34
de crypt
tr limit
0806 54
0807 27
ae b
cmp num
8049 6
---- -
e ac
r outine
Ġc li
comp lete
ag g
Ġ$ "
Ġtok en
Ġ< %
er Holder
26 1
pro blem
000000 54
comp ute
Ġsock len
7 44
08048 2
806 1
cd f
.... ....
HER E
8 68
9 50
c m
f t
h dr
fd s
A ll
M ulti
l legal
s ample
Ġw int
desc ribe
E vent
u long
Ġu pdate
Ġpppppp pcVar
7 24
Ġ raw
Ġp DVar
Ġi tem
tu id
0806 35
0806 05
cmd line
R ec
ma te
mple ment
F ind
i v
08 31
re sponse
Ġf getc
0806 74
be f
55 2
errup t
P R
c dd
se cond
pp uStack
Ġc irc
Ġdi ffe
OPT ION
Ġp SVar
ac u
28 2
ĠS E
Ġr idges
Pro cess
clean up
V M
set free
pc m
j k
t ver
si mple
0807 60
EB P
gor ith
b io
Ġp oll
Ġi mp
Ġu sage
Ġun expected
04 5
Ġerr flag
0 54
at tach
fe rno
hash ing
point er
Ser ver
ĠIn ferno
ĠNet tver
ĠNettver k
L Y
M embers
k XMP
Ġi gnored
ab d
Ġexp r
Ġmet hod
v Stack
Ġ- *
re turn
Ġpp LVar
000 39
08048 3
acu um
M ax
m q
Ġre verse
as c
po sition
en v
Ġtry ing
7 18
H I
I FF
U V
a ca
0807 23
en den
76 2
57 2
De que
ĠMy Proc
080807 68
6 28
X act
da f
cor rect
6 30
0806 17
0806 67
xb b
end ir
Ġh andle
can on
Ġpr oper
kern el
2 11
F ailure
P aram
Ġre set
to col
ke ep
cell s
s free
Ġ ?
0813 5
Ġz sfree
Ġpm add
am l
ch anged
re place
0806 70
Ġ[ _
35 3
ter ator
and om
ĠU se
this call
Ġtermin ated
laun ch
T YPE
Ġ' #
08058 7
l X
en c
6 58
AT H
80 74
8049 7
For mat
contain s
6 20
Ġd ate
15 180
40 7
Ġrea der
8 74
re size
00 7
54 1
Ġstart ing
sk ip
P rime
b ba
c ff
Ġl cons
6 70
c ard
0807 05
no re
time stamp
Ġsp ace
Ġtemp or
6 08
22 3
ation s
L M
o bj
s ource
u sh
Ġpppp uStack
get const
Op tions
Ġrun ning
c l
Ġ next
Ġs ource
bc d
Ġpppppp pp
Ġac cept
Ġsi ge
Ġjson w
ntin u
0806 02
25 9
un cate
0810 73
pppppp puStack
Ġdup string
Ġconn ect
rang ed
Ġgive n
8 22
9 94
c fd
Ġi mage
ca b
0807 93
Ġh ead
Re sult
sub str
Ġen coding
Ġen ough
enti cation
Ġmis match
und ant
Ġ'# '
d bd
v a
de sk
Ġde stroy
pro ject
sock opt
Ġ20 14
desk top
0 94
9 53
S ource
d l
St atus
Ġd ump
ĠC rit
26 5
Ġ~ *
ĠPoint erHolder
Section Count
ĠCrit SectionCount
8 14
i eld
Ġ ra
xc b
0806 80
ti v
44 2
ST R
Ġsq rt
w rap
Ġw ant
000 13
pw util
Ġbet ween
6 14
34 6
78 3
Ġm utex
test ing
Ġop endir
res olve
au to
C lient
d aa
h ay
l z
Ġ lo
Ġexit ed
hay stack
Ġ am
Ġread dir
ĠR LIMIT
Ġpass word
ĠST ART
e bb
un icode
ne st
free desktop
Ġp ack
to d
35 9
Ġt ag
Ġget pid
ĠpcStack Y
Object Helper
met a
Mo de
d fd
o nt
ca ched
Ġpp DVar
08059 7
Ġse s
ST EM
RE ATE
IL ED
kXMP Err
Ġp ri
ch dir
rn ame
34 5
ad b
59 5
08059 1
08062 11
ĠaiStack Y
Ġdup licate
0 50
8 58
r ound
0813 7
ock et
827 999
X YZ
Ġe ach
ĠL WLockA
co ntents
0807 50
98 2
Ġapp rox
bit map
jk l
ĠLWLockA cquire
B y
I C
00 28
di fy
5 98
A pp
I s
ĠE X
37 2
ĠS p
Ġopen log
xy z
J K
} \"
nt op
or age
ig in
7 15
d be
Ġp rivate
Ġc lass
br ary
User Id
B O
y ear
ĠF ile
Ġf ilter
0806 48
rea ch
40 9
ce b
Ġpppp iStack
Ġc dio
dd b
ur ing
Ġaddr info
h th
or iz
ro le
29 2
ĠS end
ta p
Ġli mit
A SE
10 14
Ġ10 0000000
Ġr ed
ghi jkl
uv w
gorith m
N S
at t
ro ma
il t
ata log
xa p
lt a
ABCDEF G
we ight
4 15
c da
q rst
24 7
000 17
37 5
Ġvar iable
6 18
b t
PT S
ve x
59 2
Ġse e
Ġli ke
B J
m utable
0806 98
Ġpre vious
mn op
Q ual
f ba
u age
ng ine
50 1
Ġt id
lin ux
Ġal arm
0 39
o i
in lock
de b
70 6
lu m
atu res
Ġcle ar
Ġp id
48 5
EN D
Ġne ighbors
lum ns
7 48
c bf
Ġ row
__ __
000 18
Re l
sub version
ĠPQ clear
UV W
JK LM
qrst uvw
L i
f ad
16 9
\' :
78 1
Ġ\" /
ĠA ND
080546 24
' \
5 27
8 70
9 17
T h
w are
x log
10 36
al f
ba nd
xffff fc
60 1
ĠS can
Ġstrn casecmp
pcStack Y
mnop qrstuvw
JKLM NO
Ġas printf
EN ER
abcdef ghijkl
Ġflag s
SY STEM
Ġrt nl
mnopqrstuvw xyz
abcdefghijkl mnopqrstuvwxyz
R ST
28 1
50 5
Ġdiffe rent
b ol
no tify
\' .
ri al
up er
Ġse ek
PQ RST
event s
quire ment
UVW XYZ
PQRST UVWXYZ
o se
08058 5
fffffe f
ABCDEFG HI
7 58
o le
fa f
ĠO K
rep ly
Ġli b
Ġpre fix
ABCDEFGHI JKLMNO
x de
Ġi ts
mp lic
Ġtw o
Ġses sion
ABCDEFGHIJKLMNO PQRSTUVWXYZ
T R
d t
r u
w ritten
param s
40 24
ĠC o
ab s
node bug
08057 1
Ġ\ \
DB us
7 70
D id
st op
et c
LE N
io d
249 249
QPDF ObjectHandle
Ġcharacter s
C M
C ol
W N
s cale
Ġb ound
0806 58
Ġd v
0807 70
Ġc ms
0813 55
55 3
35 6
ub sw
080624 5
aaa ab
dist plane
M ap
e of
Ġ' +
15 10
Ġ~ -
oo d
c be
Ġre quired
Ġ'\ '
bc b
Ġno w
Ġrece ived
d bf
54 9
fe f
ĠS HA
Object s
http s
0 76
b U
10 38
ac s
ac y
0806 99
stru ction
0 38
4 16
Ġint eger
se gment
tu res
74 6
get time
AR CH
for med
Encrypt Update
Ġ'+ '
6 38
_ '
r df
x ae
te rnal
te uid
ab ort
Ġth en
Ġo cc
err ed
addr info
Ġmon itor
5 35
I terator
de s
su ccess
Ġerr hint
ĠT ransaction
Ġr ule
ĠW HERE
080625 2
ESS ION
Ġ'\' '
Ġf mt
0806 33
60 6
cc f
Ġpar ser
l ar
} \
ĠC on
Ġt arget
ĠX MP
LO G
cce eded
2 13
9 40
L AB
0806 78
la vor
dd f
======== ========
00 5
Ġf ol
88 8
Ġstat s
Ġk ar
ord in
Ġbuild ing
S HA
d s
Ġi p
la be
ordin ate
g s
g ain
ed b
Ġf seek
80 71
Ġm q
AD DR
N ULL
fin ger
Ġb inary
0806 50
Ġ' _'
66 5
sp n
io v
PU R
Ġcheck sum
EG ROUND
FOR EGROUND
0 23
7 50
c fb
Ġ random
se l
pp puVar
80 77
Ġn ormal
oc ument
Ġwork ing
irect FunctionCall
finger print
P o
i ble
u d
ed d
log ging
ĠS L
Ġexist s
b ound
k ind
p attern
re quirement
0807 206
ĠS er
En force
080624 92
A n
L L
S H
a ir
Ġp ipe
08 9
tra ck
0806 57
Ġm al
ffffff c
Ġch anged
fs ck
Con fig
ĠPro cess
a ded
Ġf error
xc lu
0807 06
0827 7
0028 44
5 29
S R
Ġ{ \
tra te
printf acet
ix er
bbc dc
Ġs run
ĠO p
helper s
Ġsrun ner
U nexpected
e ae
l n
m icrodesc
10 44
35 2
Ġn r
000000 14
Ġ". ."
Ġ rcu
36 9
0814 96
Ġge oip
Ġle vel
Test ing
> %
54 6
ĠC reate
node s
ĠD irectFunctionCall
ĠInt errupt
element s
4 12
5 32
r untime
0807 24
Ġinter face
down load
F rom
80 79
56 2
err position
const ant
process ed
initial ized
Rece ived
S ION
Ġp e
re write
0808 19
54 5
55 1
08050 508
con straint
name s
59 6
59 083
riv ile
dyn str
9 30
D ate
E V
o ot
Ġp LVar
0807 25
ab ility
ee f
ta ched
mon itor
back up
CO DE
Ġcreate PQExpBuffer
6 90
c ircuits
d ca
w riting
36 7
76 9
Ġ: \
Ġstrn dup
cer tificate
circuit mux
ĠappendStringInfo Char
max len
12345678 90
ĠTransaction Id
8 080
pp pcVar
bu cket
36 2
55 6
ea der
pppppp piVar
ĠLock Buffer
P G
S o
50 3
Ġh igh
56 7
code r
ĠGet UserId
9 58
b ro
tr uncate
co okie
15 12
mem ory
Init ial
Ġy aml
Ġname space
4 19
08 21
Ġs rc
me chanism
26 9
100 4
04 9
xa f
Get At
Ġmulti ple
0 10
f bf
Ġi mplement
Ġ0 0
in clude
ff a
Ġre lay
ke yp
ĠA F
Find Objects
Ġra ise
C le
D U
D ocument
b ind
g ic
u dio
0806 63
28 9
48 9
08058 1
Ġpro file
Ġon ion
Sp ace
U G
d ce
t l
Ġp age
ra pper
af ter
ĠU til
ĠScan Key
c lause
Ġp FStack
Ġ[ --
0809 19
cd b
Ġexp ect
Ġau to
pri ority
B ack
e be
l k
lo sing
00 2
Ġre served
extra ct
ĠCh eck
Ġcre ated
5 21
co planar
Ġtr i
Ġc ouldn
33 3
check sum
08059 3
Re set
work er
ition al
sm artlist
Ġterm ios
V B
n an
0807 32
un expected
8049 1
lib svn
ĠO ut
ID R
Ġpar ent
TIME OUT
R esource
Ġre sponse
Ġw al
0807 199
Ġm ount
Ġapp puStack
Met a
0 66
Ġre ge
Ġg uard
Ġs um
25 1
200 2
Ġneed s
% '
P ending
R andom
s ke
Ġ defined
re ject
Ġv ici
Ġs lice
28 7
cc d
ex tend
019 268
temp t
0 58
T EST
d ad
f ul
r ad
34 7
0813 08
Ġsm all
ifi cation
sk in
Ġpo sition
ĠXLog Register
oc i
5 39
h i
Ġst andard
te rr
0806 41
30 3
Ġco lumn
0807 69
ĠC om
Ġr idge
US ER
XXXX XX
- "
7 26
p r
Ġe c
di ra
ea p
ircu lar
dira uth
Q u
[ '
f lavor
h ex
x ba
re vision
st rn
si val
Ġout side
data base
ĠappendPQExpBuffer Char
HO D
2 17
Ġ loop
re mote
ng le
Ġ\' !
08069 3
ĠR E
tcp edit
Ġint ro
Ġpp wVar
bp si
9 68
B e
p df
99 1
Ġr atio
table cmds
iz er
Ġsk ip
Ġzlemet acs
0 12
4 13
C re
c ross
tr igger
80 76
ce nter
27 1
98 7
fc b
Ġ6 00
Ġh ome
Ġ: =
ĠI f
auth or
Ġme an
Ġkar ls
O per
p ol
Ġ K
id c
to lower
it ies
ver bose
mem cmp
ffffff b
Ġch an
sock d
enden cy
oriz on
7 32
T rou
o wn
x ab
00 27
Ġg pg
Ġ' %'
26 6
dc f
ĠP RO
59 3
08069 00
Ġtest s
Ser S
Gener ate
Ġvmov d
Trou SerS
p in
v buf
in es
fin e
Ġs in
Ġd uring
get array
55 5
ea f
ĠM ark
Ġpg stat
Ġli brary
Ġsk ipping
ĠScanKey Init
e ab
g ood
Ġp ublic
Ġ"\" %
dep th
ed f
Ġv ia
ort ed
get attr
ĠS PI
ra de
res ses
Ġge tuid
080690 68
Ġgener ate
ĠUPnP P
Ġdv bpsi
labe l
f bb
Ġ ar
Ġ| \
000 180
fe b
ĠS h
Ġ\" ${
06 5
7 94
W ork
e aa
Ġ" =
fa a
0814 60
8049 5
ap ian
ĠX apian
Ġy y
Ġsys conf
rw lock
Ġdestroy PQExpBuffer
I mage
P IN
T ABLE
50 2
ce f
Ġq sort
fd f
for ced
Ġn al
ĠJ son
4 11
A Var
P S
p ayload
s cheduler
u c
0813 17
rec tion
ul ar
dr bd
FA ILED
rece ive
0 21
7 35
F irst
I llegal
g res
r um
0806 53
0806 72
al ias
0807 17
Ġtr unnel
xb e
ver y
find best
port s
D ep
Ġre n
ĠB Y
Ġrouter set
re served
tu n
to ols
ĠC O
ĠC atalog
29 6
Ġle ast
P re
set del
code c
Ġstream s
Op tion
dyn amic
ĠPro gram
go ti
lex er
N um
Ġb ig
le ton
44 5
th ing
54 7
Me chanism
Al ter
Ġpo licy
oci ated
C ESS
R ES
Ġpp dVar
pp sVar
ffff ffff
mo ved
820 2
xaa aaaab
mplic ial
rivile ge
P AR
re name
Ġ' ['
0807 64
Ġbo th
ref erred
rig ger
mis sion
T ag
c bd
h te
10 000000
80 78
0806 76
reg ate
dc b
Ġerr detail
sp ect
ur l
200 30
Ġsu ccess
PO SE
G en
m ixer
s lice
Ġ look
Ġu s
nt o
ĠF or
00 6
on ym
ti es
0808 42
27 5
0814 1
39 2
Ġclo sing
o cation
Ġs leep
Ġ5 0000
100 74
49 6
Ġse cond
ĠA t
ith er
Ġset vbuf
rit able
Ġcur ve
C ORE
m add
m ount
Ġi gnoring
14 48
0807 48
000 12
26 3
32 9
Ġat tr
pg id
facet s
6 94
9 98
T rigger
x ad
Ġ ."
Ġ1 99
Ġco planar
ME T
men sion
A rray
D ER
S O
V N
i trate
p wVar
0806 77
50 6
0808 18
ol ute
02 9
ĠI gnoring
MP EG
router list
9 18
R SA
Ġun supported
Ġf etch
0806 59
un spec
fc d
Ġse q
pl Var
descriptor s
ĠExec Init
Wait ing
Le vel
D EX
H EN
X ML
t le
34 3
ba f
Ġin sert
Ġm map
39 5
Ġo ther
99 2
P ATH
b lob
Ġlocal time
si der
xc d
on oi
0808 12
Ġse trlimit
0827 88
rit ical
AS S
* '
G ot
Ġ root
pre sent
Desc ription
4 56
U se
Ġ** ___
0806 42
0807 40
000 22
35 1
39 9
57 9
AN T
mpty set
guard s
pur l
sq lite
roper ty
Ġtempor ary
MET HOD
I f
L en
ec tions
Ġc string
66 24
Ġge teuid
AL TER
FA CT
Ġover flow
A tom
ch roma
10 90
ti med
ĠM em
ĠIP v
Ġsige mptyset
0 14
3 080
9 44
d st
0806 73
34 1
Ġm d
fd a
04 1
35 44
bb f
dir vote
lag s
pre p
Ġ"\' %
STR ING
% -
? '
e ll
h u
o ta
Ġp Var
rc lient
di rclient
Ġse arch
crypt ed
080514 49
080517 9
Ġdetermin e
Ġcore utils
T ry
get len
ĠP G
rec ord
Ġ Invalid
40 20
0808 98
us ing
build root
---------------- ----------------
So ap
Ġp artition
al ign
Ġ' *'
0808 52
no w
37 9
Ġsu cceeded
Ġtra nsport
block s
typ tab
d fb
g ative
08 7
ĠF ree
se p
Ġa gain
Ġs can
as on
09 6
79 1
sub set
ĠUn lock
field s
ĠCatalog Tuple
9 24
Ġ oid
co st
rea son
en der
0814 87
ĠS EL
ĠN umber
Ġde c
cre ator
@ @
f bd
j ust
t f
0806 45
0806 51
un map
Ġapp uStack
Wait For
M S
o d
Ġf ull
34 9
xffffff ec
0809 18
Ġop terr
su pport
Ġr sa
ĠM ax
Ġmp g
7 74
@ '
I nter
p red
t xt
de register
un wind
Ġpppppp bVar
Ġtime s
Get Slot
el f
Ġapp iStack
7 78
D L
f be
p ad
et her
64 1
ĠP KCS
link once
gnu c
Document Helper
5 11
P ath
i stream
re ar
Ġa pppppppuStack
dir cache
INT EGER
F acet
in v
ac cept
St at
Ġ' ?'
yte xt
Ġn l
oo se
Dir ty
M an
S to
l arge
0814 33
0827 67
Ġpro xy
Get Mechanism
cp sr
her it
final ize
5 15
7 54
S IZE
Ġ EC
Ġc nt
ri ve
Ġerr x
cal ar
En abled
=\" %
man aged
e bd
Ġre l
pp Var
0807 68
08049 54
70 3
36 1
100 6
Ġbo ot
56 9
08069 1
ĠRe lation
Ġdesc ription
Ġqu ery
Ġident ity
6 000
W ith
Ġp key
in f
Ġ- %
li pped
Ġpppp bVar
29 5
fd b
ĠE OF
ĠN O
OR T
Ġpa Var
9 28
fin ity
Ġb arrier
tra ce
Ġ' @'
str tol
fc f
stat istics
LogMessage Fatal
0 35
b ig
d rop
n am
Ġp h
08 158
Ġs uper
27 9
fe e
bo lic
Ġauth ority
band width
Work er
R ef
b de
k er
Ġf lo
Ġco ntent
Ġc lu
su bject
76 5
ĠT EXT
bo ot
Ġvp madd
SA GE
080517 7
eed s
begin scan
9 38
h our
ro t
cc b
di fi
ver age
ĠT ABLE
gr ound
Ġset pgid
gener ic
Desc riptor
TP M
O ops
P rivate
S ample
Ġa spect
0807 18
Ġsize of
rel ation
pre pare
trans form
1234567890 1234567890
g t
Ġi nd
co ls
37 7
In struction
46 2
vi de
sc ript
String Buffer
08100 3
Ġfield s
Ġdoes n
Ġent ries
Ġproper ty
D is
E qual
Q L
R ed
p hash
0808 38
Ġor der
finish ed
Ġpar sing
080514 6
tcp replay
Ġmon o
C REATE
Ġb r
ing le
0807 62
88 64
xd d
56 1
leg acy
re rr
on ent
ro pping
000 14
26 7
78 7
Ġto tal
read ing
49 249249
Ġsi mple
dyn array
0 26
9 10
Ġp recision
0807 16
xffffff df
Ġt s
Ġz handler
ay out
deta ch
4 32
T ran
v oid
z sh
lo pt
Ġm an
37 3
ĠS IZE
dd d
Ġ*__ _
com m
buffer s
Ġrep lication
7 36
A CK
F rame
c tive
ff set
red undant
Ġflo or
e xclu
lo p
am d
Ġre maining
al y
58 9
36 5
55 9
sp h
Ġmem chr
iz ing
PUR POSE
Ġre name
27 7
08049 52
Ġpg Var
create New
sing le
Digest Update
extra info
Ġsum mary
or igin
30 9
0808 87
sh mem
55 7
ck name
mem dup
09 3
rec v
vir tual
9 54
S ESSION
78 9
Ġal location
temp late
Did n
Q ueue
S ERT
ca pe
ec f
66 1
Ġex tension
diff mgr
multi stream
Sub session
cross cert
% .
5 16
D ES
ĠF ound
46 3
Ġor g
Ġz h
server s
Ġqu ote
Ġad ded
ske leton
5 23
i ce
t ty
Ġ Y
Ġr ound
Ġch ang
inter face
Ġdir serv
Le ngth
bro ad
Ġf amily
50 7
08056 14
com ment
Ġset sockopt
pppp puVar
080512 6
sw ap
On ly
rup t
ĠSEL ECT
* >
5 17
n v
w ard
in ation
Ġa ss
xe a
47 9
09 2
cent rum
FACT OR
5 31
8 083
H ave
] :
d acc
g ec
Ġp cap
st yle
Ġl l
Ġ3 2
ĠC R
aff c
ne ss
ne ighbor
Ġdi mension
800 5
ang ulate
ECT ION
Ġres ource
A ction
H E
c ript
Ġ1 8
0807 52
un register
94 3
og g
Ġwith in
num eric
8 92
f il
i mage
w all
Ġ= >
Ġre wind
0806 71
0807 46
0814 31
ho me
Ġparameter s
Ġframe s
Ġorg Qhull
N V
S C
f ill
p em
or m
100 3
99 3
rel path
En vironment
Ġzle line
Ġaf Stack
xaa aa
Ġref used
Ġmal lopt
7 10
I CAT
f lict
i ate
Ġf eof
64 3
sh are
ad bw
58 5
Ġtime stamp
table space
ay er
Ġ"< /
Th read
TIMEOUT FACTOR
strn dup
C D
L atch
b s
e fb
r d
w riter
Ġp lugin
28 5
000 35
is Enabled
98 1
fa af
cc cc
46 7
07 5
Ġen able
var iable
******** ********
Po licy
ĠInterrupt Pending
isEnabled For
B L
s witch
Ġdo cument
end scan
xff fe
Ġpro tocol
ap i
080512 58
Page DocumentHelper
\'\' \'\'
P ES
R Var
V alid
i eee
00 08
se quence
str i
ĠC D
Ġh ull
0827 70
Buffer Dirty
if t
080512 90
Ġpath bias
ident ifier
8 19
8 57
c msg
p gr
y es
30 5
68 2
74 5
ne goti
dc d
56 5
Ġcon straint
mer gec
rel id
pk t
CR L
Ġid x
NO WN
e cho
i mate
n The
Ġ" {
Ġre ason
ac es
80 90
60 2
39 7
Ġmem area
desc ription
ore ign
Dep endency
4 22
d bb
de lay
char pp
10 08
DAT A
000 23
get next
xffffff ea
con cat
ist s
200 1
fini te
Ch unk
Ġinvalid Instruction
Ġdown load
Ġpmadd wd
ĠinvalidInstruction Exception
l Var
r p
0807 13
Ġ10 0000
78 5
ra nt
ĠM edia
ĠM embers
count ing
Rep ort
ntin ue
resh old
T emp
i mal
l g
Ġ ..."
Ġp ic
Ġg lobal
Ġs ched
64 2
Ġt yp
ĠapcStack Y
open ed
if stream
title s
Param eter
ĠMark BufferDirty
Q Var
s Stack
Ġp AVar
38 9
fd d
ur ity
Ġerror s
Ġcon vert
108 4
IL TER
sele m
M O
Ġlocal e
se conds
0806 01
0807 19
79 5
ĠU RI
ig nore
HT TP
abort ing
3 32
n Fatal
s ch
t tp
w b
Ġre ject
pp ppuVar
si mplicial
29 7
xe e
66 7
Ġse m
08068 2
ĠD SA
lic ies
Ġfol low
Ġzh alloc
6 76
N ext
h w
Ġs oftware
44 3
000 26
000 100
Ġ10 00000000
Ġto p
Ġstr p
list s
0827 63
De fine
Ġpoint er
h ave
x x
ch unk
38 2
Ġl ines
sh u
Ġ"% .
bu ilder
Ġde leted
ic tion
ĠU sage
queue s
UT H
ENT RY
tw o
Ġrege x
6 98
I dent
N E
Ġh idden
dd a
Ġde st
8049 2
us able
ass ociated
Ch ild
Bu ild
ABCDEFGHIJKLMNOPQRSTUVWXYZ abcdefghijklmnopqrstuvwxyz
0 15
w indow
Ġ; '
08 23
20 70
50 20
mp t
94 7
up lot
79 2
realloc array
errup ts
4 25
9 78
m k
Ġw ritten
38 1
60 5
Ġbo x
08056 161
08056 183
ĠP ort
49 5
sc ription
Ġadd ing
lay er
086 28
Pro gram
ĠLo ok
multi ple
M issing
O bj
] '
e ight
Ġe v
Ġ% *
0807 12
0807 88
805 19
ĠCON F
100 30
88 2
37 1
ra se
06 1
69 6
Ġz alloc
138 18
bab ly
Ġimplement ed
ĠOut put
6 17
r ing
te ms
30 7
0807 92
90 2
90 9
xffffff ef
0814 84
ĠE vent
ee k
Ġz warn
Sh ared
3 12
k en
Ġu nt
44 6
0807 35
94 9
ĠS ocket
0827 42
Ġen code
sys log
warn x
unit test
9 70
O f
int o
00 49
sh ow
08055 32
do main
br k
user pass
Con n
Ġauth entication
Ġpo s
Ġoper and
O H
m day
p oll
Ġp k
38 5
000 11
ĠS H
66 9
com ing
sig setjmp
comp ile
type info
cal c
sr v
cv t
App ender
mergec ycle
9 64
I E
M ENT
i stringstream
p ipe
ch ain
Ġf m
Ġd on
Ġco lor
64 7
ĠC losing
0813 05
.. \
dent ial
Int errupts
Ġres olve
go ing
simple x
3 23
W h
Ġi ter
Ġs cheduler
Ġw c
58 2
register ed
app s
alle nge
++ ++
Ġmono time
0 59
6 16
pp ppiVar
0806 52
74 3
vi der
RO DU
08069 7
pe er
File s
Ġwait ing
cover y
Oper ation
N OT
N ative
f p
g ht
nt uple
40 96
64 9
is inf
ĠP EM
ĠP MU
56 6
he re
Ġle ss
Ġconfig ured
0 13
6 55
F ield
P K
P ass
o h
0807 28
78 2
xff U
Ġcon ver
DT S
Ġon line
type s
IS O
Ġtuple store
ntuple s
C er
Ġ defin
44 1
0807 04
Ġpppp bStack
Ġqh ull
Ġh to
mem alloc
ĠLog Message
mark er
Ġvp s
Sign Recover
extension s
RODU CE
F ILTER
H ost
R ange
Ġp ub
ch allenge
0806 100
0807 45
0808 08
70 2
98 9
94 6
Ġo wn
Re served
0827 72
8049 3
79 6
Ġkey s
Be gin
! '
7 084
M AT
O IN
e ngine
z d
Ġp ur
Ġun recognized
10 50
up g
ĠSer ver
7 55
B yte
a un
c lock
d x
o ther
Ġ Stream
ch oose
ti al
70 1
78 6
0813 09
100 5
07 7
08069 6
Con straint
To String
Ġsub titles
wh ite
xffe fffff
ud p
Ġ"= >
Ġclu ster
xaaaa aaa
" [*
I tem
i ca
m ble
li ve
74 7
36 3
0814 30
ĠP ar
ta il
em it
all back
080514 33
cur ve
Ġexc lu
pm Var
ĠSE ARCH
ordinate s
Generate Key
> </
F ound
n a
68 00
be vent
ĠN VM
06 2
Ġse tup
Ġcon st
ĠPQ ntuples
introdu ction
8000000 1
wh ile
Ġdid n
K IT
h a
Ġs yntax
0806 31
ma gic
Ġpo w
Ġdis abled
080615 00
Add ress
rou te
Ġoper ation
roper ties
Ġbound s
Ġgpg me
A P
f ed
Ġp ush
st emp
0807 33
57 7
desc r
Ġver ify
Ġapp ear
canon ical
Qu ery
C OR
S ER
V E
c tor
n aborting
re wall
to o
ti ls
ĠC K
set new
04 7
Ġstr spn
RO P
ap bStack
Ġstat istics
fail ure
rap h
cvt sudoers
3 000
T E
l round
y u
Ġre al
80 72
Ġco nd
60 3
ĠC PU
Ġh i
Ġh ard
Ġ\' "
45 1
Ġse le
du ction
proto cols
VER SION
Ġcer ts
apiStack Y
3080 082
4 52
M AC
s oftware
ng yu
0808 58
805 18
set len
Ġpppppp iStack
0813 23
an onym
gn ame
41 08
77 1
che ngyu
Ġz sh
ĠO ID
ĠR ep
circuit map
OCK S
keyp air
Meta Handler
0 36
l ing
o ss
Ġ ser
de lta
10 64
11 90
54 10
ut down
Ġm unmap
84 6
ĠS R
ae mon
ĠT ry
De stroy
420 2
pass word
Verify Recover
H idden
I I
c path
h op
ĠF OR
00 3
Ġd uration
Ġ' !'
48 2
68 9
Ġin complete
98 6
yp er
fo o
ĠT r
addr port
ĠI gnored
hs dir
Ġopen ing
Ġav ail
PU B
Ġcomp ression
3 19
G roup
se lect
Ġst ill
si b
64 5
is nan
un cated
Ġc ircular
Ġn amed
ĠT OR
Ġbe gin
ĠI F
Ġac tual
Ġspec ific
ni ckname
Obj Gen
0 56
P F
P cr
P lan
g ot
Ġp mu
Ġ' $
Ġco lumns
70 9
ne ed
04 3
la p
ae s
59 7
Ġy et
auth ority
Ġfd open
pw uid
ntinu ing
= $
P acket
Ġpp pvVar
Ġg d
Ġ2 000
50 38
un ref
70 5
94 5
Ġsh m
proc mask
Ġau parse
Ġsi phash
Release Buffer
compat ible
asc ist
3 16
R am
in buf
Ġre vision
90 1
74 9
get msg
39 3
la in
ĠR un
core utils
ĠGet Current
group s
Ġcor rect
ĠUnlock ReleaseBuffer
Ġvps raw
a w
b is
l ac
o ve
10 02
pp p
Ġs lot
38 7
98 08
0813 18
35 7
99 6
ĠT uple
ER R
ot ing
080512 68
Ġnode Read
Name space
Ġqu al
mov ing
tri angulate
abs olute
ĠProcess Interrupts
R un
T F
i mp
11 98
at ty
rea der
29 3
29 9
Ġo wner
Ġis atty
ĠT ime
Ġas sign
Ġpq signal
Ar ch
Parameter s
P OS
Ġb us
Ġs chema
Ġgo od
98 60
805 14
04 6800
Get Block
ĠO BJ
Ġinit ialize
Ġwe re
Dependency On
i mple
Ġp ayload
0806 62
Ġco ntents
Ġsh ared
Ġsh ift
Ġstr u
Ġ. __
md s
080517 66
Ġinter val
div di
getconst array
Back end
9 804
9 29
P roperty
p recision
se ed
Ġe cho
0807 89
th est
en um
Ġh ttp
ĠN ot
ur thest
69 5
ĠI t
Ġal loca
ust ed
Ġx ml
Ġcom ment
080495 15
Ġauth or
Com mit
At tribute
Ġpppppppp SVar
A nd
B AD
Q U
S ec
g it
str cmp
ĠC A
ut ing
ĠA dd
CT ION
Ġle x
Ġblock s
post gres
Output Stream
Ar g
Cle ar
3 27
7 21
Ġ" ^
Ġre ference
Ġf ill
li ed
94 1
be rn
ĠP age
Ġde code
eb ca
IT Y
Ġsig procmask
080512 48
AC E
acl check
Ġhist ory
ĠTuple Desc
7 56
c ing
c wd
int ext
ou rnal
le ft
60 9
li ver
33 9
di c
08089 238
xac t
080842 38
P MU
U RE
Ġf ea
Ġdo main
up load
sign ing
ĠX ML
Ġen vironment
reach able
ĠCom mand
080887 68
e g
n h
n se
te ll
44 7
Ġl ang
xf U
ma il
con sist
66 2
ls o
merge set
Ġrequest ed
Ġnum eric
Bu ilder
Ġhandle r
3 55
5 37
8 23
b ols
p lt
p ton
ar tup
Var iable
am pl
si te
str tod
0808 37
ri de
ver ti
0827 92
dir serv
08076 229
Ġmer ged
support s
3 15
h igh
i i
Ġl stat
Ġ\' _
EB UG
Co ntent
08069 2
Ġen abled
LO W
Ġcle an
Ġ'$ '
3 31
9 74
B it
C BO
F T
N ONE
00 080
20 38
11 11
Ġf scanf
ol ved
po si
an aly
Ġh alf
ĠN ame
ld q
ĠB u
08053 24
Ġch mod
pppp ppuVar
ĠW arning
Ġcall back
080549 6
laun ay
Ġsuper user
D VB
n b
u to
Ġ our
out side
Ġw add
0814 86
Ġo gg
Ġcircuit mux
Ġrec v
To o
pi ck
Ġtrans form
way s
AAAA AAAA
card ing
ĠOp en
Ġren dezvous
Ġpur pose
aun ch
Ġf ont
Ġ3 0000
08050 52
ĠP ost
Ġde p
AR Y
arg er
lib r
Tuple Desc
rt attr
full y
iv ing
4 36
ffff fc
Ġd one
38 3
no ther
ĠS tem
ĠS ET
em er
08078 685
Final ize
ph a
Ġloop s
Ġvpmadd ubsw
ĠUsage Environment
4 57
Ġp tr
08 128
10 60
Ġd aemon
0808 65
48 3
ve n
ea k
06 9
Ġse nt
Ġsu pp
do cument
Ġx realloc
File Format
Ġreg ion
hist ory
qui et
abe l
bl ack
Verify Update
Ġmk stemp
tim ing
white space
L ink
S QL
[ ]
n u
v is
Ġ Start
lo aded
Ġl ame
set in
ge om
32 24
29 1
Ġse gment
ST ART
Ġcomp lete
Ġstart ed
med ia
Ġbu gs
080518 36
IP v
ĠINT RODUCE
Ġsym bol
creator Atom
7 000000
8 15
d Stack
g ory
i cate
Ġ kernel
ou te
11 20
Ġs ome
0807 34
100 34
xd b
la sh
56 3
Ġde lim
que u
0827 90
ffffff d
dist ance
coll ation
081323 24
4 55
7 22
Ġb ridge
28 00
par allel
98 5
get specific
Ġpppppp pbVar
dd fd
ĠT op
0827 93
ĠD TS
link node
rou gh
Ġrecord DependencyOn
rad io
upg rade
A ccess
O r
O id
Ġ job
se tenv
Ġa gg
as sph
set specific
size of
0814 34
con vert
ĠM o
ot al
ST ATE
Ġac tive
io dic
EG IN
3 22
6 13
8 081
B ER
M ark
T arget
W riter
d at
n op
Ġun signed
re port
Ġst op
0807 95
sh ould
805 17
fi rewall
Ġpro j
Time stamp
Ġdis able
080559 57
Ġsample s
080727 80
5 000
D rop
O ffset
g c
k ipping
r am
Ġp attern
rea ter
99 7
79 3
Exp ected
Un recognized
Ġname s
host name
cons diffmgr
9 62
r idges
s calar
Ġ ###
se ct
18 54
80 73
Ġ' ]'
Ġl ate
is Equal
74 1
06 00
um my
data len
No Memory
cre ated
word s
trust ed
block ing
Transaction Id
Met adata
Ġph Var
broad cast
ĠTupleDesc Init
assph rase
/ >\
5 76
D o
L ayout
N UM
f time
} "
Ġp ost
st orage
te nt
80 3
Ġco s
0807 31
ĠP l
wait ing
N on
T r
a ger
s chedule
10 74
Ġe ither
11 34
co gn
28 3
ex tended
free tuple
ĠT R
Ġcon vex
ĠD ir
0812 6
per iod
Ġato l
Ġtra ce
LI C
802 11
Page ObjectHelper
mble n
N T
te ct
0807 22
0807 07
68 3
un link
log ical
dis abled
xe s
ĠS IG
ĠT LS
Ġthe re
08068 5
080515 5
tou pper
Ġcurrent ly
unt il
TA G
Ġstrp brk
Operation State
Ġgd Image
e U
g y
0808 46
39 1
59 1
Ġget cwd
Ġlist en
Ġ"[ %
pppppp ppiVar
Ġident ifier
B inary
] ...
i ck
x ed
Ġ ::_
20 24
48 7
68 7
805 15
67 7
ĠW rite
cate gory
Pro vider
router status
ĠG NU
Bad FileFormat
IF Y
ĠDis carding
pgr t
Ġzwarn nam
0 31
3 26
8 62
? \
S UC
l double
Ġ PTS
or port
0806 75
50 50
Ġpppp pcVar
67 9
Ġdi ff
ĠD E
UNK NOWN
merge s
080537 17
download s
Ġpe Var
T LS
b rand
Ġ area
de leted
10 70
11 94
ge oip
Ġset s
comp ar
met h
entry nodes
ĠG ener
ĠG UC
VAL ID
D S
o ad
Ġp art
Ġun der
0808 55
ĠC ache
08049 84
\' .\
ator y
805 13
Ġc ycle
mo dify
53 54
Ġde lay
49 1
ust om
stat ic
08080 1
Ġevent s
pre cated
Ġnode list
Open Session
agg regate
OPTION S
X MM
Ġ You
Ġp RVar
15 5555
57 3
af y
0827 78
Ġpro bably
nge st
count er
Ġmk dir
eap Tuple
ĠCR C
D A
M a
P M
b ort
p ty
Ġ ...\
Ġp referred
re verse
Ġs ingle
Ġ[ \
0808 49
58 7
805 16
100 78
Ġo k
UL T
ĠM ake
Ġ******** **
min or
path bias
Time code
Ġsin ce
C ritical
F lag
r action
str casecmp
Ġ2 0000
68 1
805 22
805 27
0000 000000
Ġq pdf
46 9
ĠT ype
Ġse cre
rector ies
ul Value
Create Object
Ġ... ]
Ġmessage s
Ġunk byte
rece ived
ulValue Len
W A
r s
Ġp rivilege
lo ts
de liver
Ġa lso
18 20
80 98
Ġg in
alloca tion
58 1
Ġc msg
set de
ate way
lic it
ho w
ĠUn known
ĠV alue
Ġexpr Type
nv m
7 57
T op
m map
Ġp w
10 48
Ġre mote
at tached
\" ."
88 5
79 7
ap e
Ġal gorithm
8000 13
8000 400
230 4
cap ture
Ġauth dir
Resource Owner
D EBUG
G ROW
H eader
I ME
L ast
e rn
Ġ Key
tu l
Ġf Stack
Ġl ayer
IT H
Ġmo difi
Ġj ust
ew ma
ps Stack
RI CT
3333 3333
pol y
libr ary
oad Error
Ġcmsg hdr
al t
Ġco st
as se
805 25
ma y
ma pping
su re
200 5
114 8
Ġal low
digest s
::~ _
IG EST
Ġcontain ing
Lo ad
lang uage
Ġcre ating
ĠTupleDescInit Entry
Ġpw box
f ound
p icture
q s
u ous
u pper
w atch
Ġun its
st ance
Ġf lush
Ġd sa
0807 43
Ġin c
32 20
0809 13
vi sible
Co de
he ight
print point
hel lo
lication Slot
sq l
Ġexc eeds
lim its
n id
in c
Ġw riter
08049 69
li p
ne x
100 24
read able
dis play
ex if
ect ing
08057 255
ryp tion
Ġr df
cond attr
Ġzle ll
Ġinit StringInfo
Su ccess
IST S
6 12
l val
q l
re maining
int eger
11 24
ec ca
Ġc Stack
67 2
800 1
EN C
ĠPQ result
08080 2
Ġtra ck
080560 73
Su pport
707 107
Ġpri ority
exclu de
Ġdefin ition
SUC CESS
0 52
8 32
9 36
W ritten
s ame
z le
Ġa buf
40 34
48 1
ea ch
76 7
08055 485
Ġcon struct
ĠM A
av a
Ex tension
Ġac tion
CLE AR
Ġsec ure
ĠMy Database
End ian
ici ent
negoti ate
Ġsecre t
0 22
0 32
3 21
4 21
4 23
D F
P KCS
g re
v acuum
00 9
80 509
Ġw move
0807 14
xb fU
ll w
Ġh orizon
67 3
08068 1
08066 188
ĠLog Critical
app ly
ĠINT EGER
Internal Failure
=\' %
Ġpoll fd
ogg le
0 11
I AL
L g
O L
P ublic
U SAGE
W riting
j np
p XVar
st or
Ġ" @@
Ġ1 4
Ġre cogn
Ġa pppp
li ze
Ġtr uncated
Ġm icrodesc
xd fU
99 5
47 2
vi ded
RO UP
Ġor ig
086 139
Ġnode s
jnp r
8 35
J son
T or
a der
c id
l buf
l ace
m time
s or
w ritable
08 63
st andard
Ġg reater
Ġs byte
0807 21
ĠC MS
con vex
ist ic
for ma
sec tions
ot tom
circ id
app lication
mate rial
vide o
consist ent
0000000000 000
S EC
U pnp
[ __
r Var
Ġ" &
0807 63
27 3
805 20
po licies
xe b
0827 79
Ġ-- %
08076 25
Pro gress
Ġne gative
chan nels
Ġps llw
2020 2020
ĠJ OIN
REQ U
emer al
0 51
D ROP
M in
S ystem
e val
x of
Ġp u
re ference
int r
20 19
Ġf p
18 60
Ġg ist
0807 03
Ġc ircuits
Ġstr ftime
77 7
Ġav filter
086 130
ME M
Ġmean ing
6 56
B oot
O US
p riv
ac tiv
li bevent
is ed
Ġpppp puStack
set gid
76 50
69 3
67 5
ĠA C
av ailable
comp ose
Ġps adbw
LI ST
AV C
yle ng
rup ted
ĠTr spi
8 95
T L
d ated
r fc
t st
Ġ0 1
de gen
tu rb
Ġf ascist
0807 59
0807 97
0808 59
\' ::
un ner
gn uplot
la ve
and atory
Ġget pwuid
Ġz free
ĠH S
Ġpass ed
fore ign
bin ary
wal ker
Ġacl check
Ġattr s
Ġrewind ing
forma nce
8 51
9 56
= `
ff fc
tr ix
Ġfor m
Ġl z
000 20
805 26
xb ff
100 70
ĠP rint
Ġab ove
Ġkey word
Ġrep ly
Cer tificate
C P
_ .
n cy
Ġi tems
10 104
60 084
Ġin clude
100 60
add set
add arg
ate rial
47 6
08068 3
ant s
Ġpmadd ubsw
ĠSp ec
ĠSH M
yper plane
c diff
s yntax
u uid
Ġp lay
11 14
Ġv ote
Ġw idth
0807 36
000 30
90 7
set ting
ne lt
lock file
Ġsig addset
CO MM
Ġmer ging
Ġinitial ization
Recover y
ĠAF D
9 69
M IN
b ffc
d w
i tu
o ok
DAT E
er ate
Ġs cale
Ġco ntinue
44 9
90 5
0809 57
Ġstr tod
fi fo
Ġsu ch
Ġen c
ĠH B
Ġconn ections
Ġpa ir
Ġload ing
Post master
unspec ified
zsh Q
P C
U ID
a sic
s d
u ar
Ġ ng
Ġd h
Ġ\' -
0827 71
Ġbe low
Co lor
08068 7
RE P
opt arg
0815 38
LI SH
Ġdescriptor s
Stat istics
1 140
9 32
P ub
n S
p ng
u tor
z lib
Ġ1 1
xc f
0808 54
94 2
ge tenv
84 7
free p
46 1
49 7
Ġab out
ta ke
0827 66
0827 87
108 8
ĠU TF
Ġav codec
Ġle ft
per sist
med iate
Ġne eded
frame s
Ġdis k
mb ly
Ġsend ing
pla intext
Ġrow s
ĠSh mem
% *
M on
N G
O Var
h ba
i pped
s ll
Ġ low
ĠL ink
\' `
Ġm u
84 3
err msg
57 1
67 1
0827 55
ĠM ulti
Ġsu ite
Ġstrn cat
rend service
Ġmain loop
linux sll
Ġfollow ing
M em
O BJ
R L
T rans
b g
Ġe ff
Ġg pgrt
co lumns
000 15
0814 85
la ne
Ġop c
47 1
check facet
Ġz term
ĠW HEN
func tions
Ġk ecca
Op Message
Read ing
Lo cal
844 47
Ġpppppppp ppiVar
Ġkecca k
OpMessage Builder
6 22
9 76
V ideo
b lin
g on
Ġ ca
Ġ tree
sh ip
805 68
0813 82
pro file
Ġ99 9999
080538 74
VAL UE
establish ed
asc ii
081355 24
A GE
F ea
H z
I gnoring
O s
c mux
i sh
re store
Ġre v
al gorithm
str ap
0807 37
ĠP re
Ġget ting
du ce
comp ression
ress ed
Ġ] "
Ġnumber s
ĠH eapTuple
ĠG roup
compress ed
attribute s
Ġsign atures
PAR AM
shu fb
9 12
9 52
B atch
s up
t N
Ġ 30
08 2002
Ġe h
par ed
805 08
an ded
35 30
xd a
mu st
ĠE n
Ġex tended
sign atures
07 1
Ġr m
0812 5
cre p
Ġmet adata
Int el
pass wd
au dio
man y
Par allel
dl c
Ġchan nels
Ġiter ation
WA IT
ĠSHM Queue
8 75
a head
m i
u res
Ġ arg
Ġre place
pp piStack
Ġa ngle
Ġ4 8000
al pha
ED GE
0808 63
>>:: ~
98 3
805 34
fa st
84 2
Ġstr sep
and by
69 7
Ġse par
0810 01
Ġy ytext
by name
config ured
RE AM
Ġne ighbor
Point s
enti cate
vor onoi
08137 344
[ =
h dlc
~ '
20 40
al ine
Ġ' ~'
0808 33
li ca
ĠS ize
IN DEX
07 595
114 4
1000 1
De bug
link list
pack age
LI B
Ġper mission
Ġcer t
suff icient
Ġzlemet aline
Se quence
Ġintro duction
ĠJson b
Ġsuccess ful
Red o
analy ze
A udio
R ANT
W rap
g nore
o site
Ġ1 5
Ġf sync
805 29
bf ile
76 3
Ġn one
Ġen large
sock addr
080504 98
Di rectory
Lo ok
method s
IZ ED
ole an
stri ct
4 66
M ain
R ate
d on
i ent
z std
| --
Ġ- _
Ġa nother
Ġs ync
Ġd ns
set time
08050 19
Re Scan
dir server
ĠD W
Context Create
ĠExec Clear
ĠExp lain
ĠOPT ION
Ġattribute s
Ġseek ing
ĠServer Media
ĠExecClear Tuple
A ctive
B o
D P
P artition
b idden
c U
e mpl
p BVar
Ġun setenv
re spon
Ġe st
Ġre member
si lk
at ial
0807 02
60 7
li as
0809 21
Ġ\' --
Ġde tail
47 7
res cale
AN G
0818 4
run ning
Ġcommand s
Ġro t
Rec ord
tun nel
Sto pping
PK IX
radio tap
B EGIN
N ull
U sing
j ava
m ware
v ec
x id
ed ata
st ime
10 088
AB LISH
0806 61
\" .\
Ġno cache
Ġex ternal
err print
06 3
um n
start ing
400 7084
ĠA udio
ir mware
Un wrap
exp ression
Ġx strdup
tem pp
EST ABLISH
ĠAl loc
Multi ple
Unwrap Key
6 26
8 26
8 39
D O
E O
G lobal
S V
i str
v olume
Ġp ending
ĠF loat
ĠF unc
to c
at tempt
set tempp
100 44
0827 58
96 60
En coding
Ġlast val
pi bfile
Copy right
Ġvi sible
ĠUPnP Provider
ĠEX ISTS
0 53
8 59
P lay
R ule
T EXT
a le
Ġfor ce
0807 42
0808 64
ro te
08049 56
08049 03
ĠS ysCache
08056 65
57 5
ĠU ser
Un it
apcStack Y
Ġper iod
Par se
ĠOR DER
OBJ ECT
3 13
5 33
N AL
c sum
k ill
de t
10 21
co nt
St mt
ĠC ouldn
set attr
0809 33
con sider
ĠS ystem
47 3
error Message
Str Test
ĠPQ errorMessage
ĠMemoryContext Reset
080639 14
json b
GetAt tr
ĠXLogRegister Data
Ġar r
uc libc
POS IX
ĠMyDatabase Id
0 57
3 11
8 082
B ase
D er
S ocket
U til
d uration
Ġe match
20 44
rea ched
22 60
000 19
en ame
di m
ĠS VN
46 5
dup licate
Ġsp eed
object s
Ġpre sent
session s
ĠQPDF PageDocumentHelper
080628 20
ear ing
normal ize
Request ed
Expr Context
ENER AL
fil ler
Ġhto nl
Ġser vent
asse mbly
ĠSysCache GetAttr
4 29
9 66
O ver
X D
j or
11 38
Ġf re
co ntent
Ġw ould
0807 09
0808 53
000 27
un ix
805 28
di rection
ĠP RI
Ġt cp
0827 76
ĠD esc
SE I
Buffer For
ĠO n
io buf
var i
086 132
Pro xy
Ġme chanism
ev p
HO ME
ĠPRO G
Ġvmovd qu
GetSlot List
Byte s
REQU EST
4 99
P rece
f re
l q
w rapper
Ġ @
Ġu id
tr n
0807 51
xffffff dc
84 1
Ġh andshake
Ġat t
ĠP IN
ist able
47 5
ap uStack
gr pid
hash table
ĠO S
Out going
Bu f
UR L
Sp ec
Ġdetermin ing
Ġalloca ting
Json b
6 27
P CU
g raph
s napshot
Ġp QVar
nt rant
08 50
Ġ" -----
Ġre try
le ve
Ġf mgr
ree ntrant
par sed
805 00
ri ver
0813 57
100 90
Ġth rough
08056 135
check sig
Ġpro vided
ĠU nexpected
Ex t
0810 1
all stat
ĠW ITH
PU T
Ġcomp ute
argument s
Set ContextCreate
080705 24
pr Var
big uous
nh m
Bit map
Ma pping
Ġng rp
Prece des
SetContextCreate Extended
7 27
G IC
g w
r al
Ġ xt
Ġ KEY
12 00
80 75
08049 92
08048 270
0814 25
04 5020
ee ded
07 2
ĠA V
Ġon ce
work space
use rname
Ġcom mit
pppppp piStack
0815 37
ĠEN D
lang info
080684 77
Ġextra ct
Col umn
ĠCatalogTuple Update
GetMechanism List
ĠMA X
Wrap Key
ĠAlloc SetContextCreateExtended
Der ive
Ġxt rerr
C F
Ġparam tab
Ġg ap
Ġs yn
40 40
ĠC H
ĠN UM
Ġt mp
49 2
Log Level
path s
De lay
of stream
circuit build
Ġ"< %
080514 1
Ġfiles ystem
Ġelement ary
ica lize
Ġexclu sive
PUB LIC
Arg ument
ĠPQresult Status
7 25
9 22
B LA
I CE
S IG
T H
V i
h orizon
h emeral
p atch
s chema
Ġ nto
Ġp OVar
Ġ" **
Ġpp rVar
Ġm id
ep hemeral
06 7
Ġse l
ĠA D
77 5
Ġma pping
Ġfunc tions
Ġpo si
Ġ20 19
Ġexec ute
CA P
sym bolic
reach ability
9 11
A gg
M OCK
R ENT
W al
b ps
l am
10 98
Ġst yle
Ġf atal
Ġf lipped
28 94
me as
il legal
li ght
Ġm at
805 40
ex ternal
.. %
Ġexp and
AL L
Ġtype s
Ġvp mu
Ġspec ification
ps printf
080556 53
ppp serial
Ġlang uage
Ġprivilege s
ĠFunc tion
4 27
7 73
G B
H ook
T ext
l r
re al
11 18
11 30
Ġd rm
Ġwh ere
0808 89
as ync
0809 99
ot ed
080767 78
AV E
Ġtrans action
CL U
over lap
owner check
hi bern
dential s
5 19
5 22
9 13
U p
U ES
W rapper
si s
Ġs f
al i
0807 29
0807 96
ĠC IRCUIT
08048 35
Ġpppppp pppiVar
be xt
be fore
Ġh ad
In crement
81 20
pppp ppiVar
pre vious
Ġcom bin
08077 088
inter sect
Ġqu ota
Sh mem
5 13
P RI
o ke
ar ly
Ġp dStack
am p
11 50
AB ASE
Ġs ort
tor s
70 68
Ġm icro
ĠT IFF
0810 7
Ġbu ilt
router info
gh dr
ces ses
sum mary
member s
Ġms ghdr
Ġsign ing
045 118
Initial izer
RES P
Ġpos sible
anonym ous
7 16
B D
I A
M ON
or onoi
Ġs ave
100 9
new facets
Ġde lta
Ġr untime
Ġmo ve
Ġexp ort
sock name
version s
Ġ"- ->
ĠV AL
Ġrep alloc
ĠBuffer GetBlock
3000 082
ĠBufferGetBlock Number
0 99
4 33
4 35
G ET
T otal
f ter
f allback
g rep
s b
Ġe ven
Ġre store
er ce
rea se
0808 83
\' ."
0809 26
sp name
200 20
081 08
082 68
Ġac counting
ĠR IFF
iter ate
Ġk nown
Ġato f
VER IFY
Ġstrtou ll
Digest Final
Ġvi ew
cv d
Ġinsert linknode
Upnp Device
- \
6 32
8 69
P id
b itrate
l c
v ance
op family
ro data
21 10
805 12
Ġto lower
ĠP acket
Ġt ls
Co ordinates
dir s
ĠA L
com men
ĠU RL
qu ote
call y
As sign
08080 3
Ch annel
circ s
Ġio vec
080543 18
ĠIN DEX
Ġband width
Ġpe er
Soap Outgoing
155555 55
commen ded
4 37
A d
B U
E P
f atal
u ce
u do
Ġun able
ff ix
20 30
ĠL O
Ġg r
Ġ% %
0808 28
805 64
Ġc ipher
0814 3
ab out
lock s
ex ists
ĠE nd
ent ries
09 7
key map
Get Object
Ġen crypted
ĠRe move
rep lication
Ġpo ol
!! !!
CE IL
ĠInt ernal
%% \
Rece iver
Ġdef Get
ĠTry ing
poly gon
8 36
9 61
C lass
F oreign
S lice
e ren
i b
{ \\
~ ~
de ad
nt he
ed bc
st ep
Ġd ay
ba aa
et a
0807 90
805 33
805 63
Ġprintf PQExpBuffer
ta in
Ġdi ffer
Ġz err
Ġas sert
080512 42
Ġapp ly
Ġcount s
ĠPro c
ĠExp ected
Ġus able
Ġass u
ĠLogMessage Fatal
ĠFunction Call
GetObject Size
eren crypted
3 25
6 31
F lush
S ink
k ing
Ġ rand
11 28
lse t
38 18
0807 49
un set
805 65
100 7
ĠS ee
mo re
ĠN CONF
Get Session
Get Token
res can
res olved
De code
// \'`
ĠExec ReScan
Ġtable s
080564 24
Copy Object
027 948
Ġhost ent
GetSlot Info
GetMechanism Info
Ident ity
Ġjob tab
Ġrm dir
GetSession Info
GetToken Info
* "
3 17
O ne
X id
a ired
b ottom
n ALTER
re po
xffff fb
0807 94
mp i
805 24
805 48
0809 58
Ġh ow
Ġex act
09 12
Ġcon flict
110 4
Log Log
08066 104
ĠR esource
reco very
barrier attr
pi ed
Ġexec v
sym bol
Ġimp aired
ĠSL ang
inv ocation
Ġappear s
5050 505
don na
8 96
Ġe at
Ġs n
ree n
Ġpppp cVar
Ġc ds
Ġbe ing
ĠD IGEST
080517 50
Con nection
Ġwe ight
vertex neighbors
Encrypt Final
Exec ute
Par ent
dae mon
Ġyy lval
ICAT ION
nelt ls
Ġdetail s
6 29
8 11
A F
T ree
Ġa ve
it tle
str len
ti s
0808 22
78 74
98 14
805 30
805 79
xffffff bf
la test
07 3
Ġ: "
ffffff a
ĠM e
qu ota
ain ed
08074 50
Ġstart s
Ġ"< --
Invalid ate
exec utable
ow er
MA GIC
Decrypt Final
ĠAl ter
Ġred undant
rot ate
6 57
7 31
F etch
n str
Ġp op
11 80
0806 444
bc de
100 48
Ġh earing
ĠN AME
key size
ask s
ht ml
Ġprocess ing
0818 9
080511 20
auth enticate
Ġpre v
Ġumask s
Time out
ĠQhull Facet
sele ction
Ġmark ed
Ġnet link
Ġsele cted
Ġwadd nstr
# "
4 59
6 59
7 72
8 66
E xtra
d ffc
Ġ St
Ġ timing
Ġp adding
20 60
Ġg n
0807 41
ue ss
08049 04
il i
Ġm ight
805 67
ri gin
bu ilt
100 20
100 28
ĠS imple
69 1
dir ty
append f
AN IF
load ing
ĠW al
080512 3
Ġrouter info
Ġolsr d
chan neltls
ĠSe quence
Ġinitial ized
Ġtuple sort
Ġpri mary
posi tor
ĠOpen SSL
CEIL ING
ANIF EST
# \
4 31
4 39
A UTH
D SA
S IGN
X Log
e log
p x
p alloc
ch ang
un i
list en
sp aces
vi ew
Ġsu re
---- --
Ġmo st
Ġle g
sr unner
0811 300
CO L
ang le
CON T
merge facet
Sign Final
QPDF PageObjectHelper
bw f
ĠTransactionId Precedes
Cre ator
Ġdocument ation
media server
gre SQL
Ġpu tenv
1 100
6 21
6 52
7 76
9 23
H P
P tr
i flag
p lot
| '
| -
Ġ finish
10 54
20 34
Ġd ynamic
0807 99
000 58
Ġtr igger
805 66
805 96
Ġto w
ĠS C
49 3
Ġr oute
082 20
08069 5
parse able
ail ing
Ġj v
Ġexist ing
trans action
Ġvpadd d
right s
ĠRelease Buffer
Ġsym bolic
We ls
ĠSE I
Pass word
emit ter
CBO X
Ġremember ing
BufferFor Redo
7 11
9 27
F ull
a wn
a tom
f lipped
Ġ 24
Ġ location
Ġ fingerprint
in herit
Ġin correct
98 10
805 37
be g
ate gy
su ite
083 17
Co ntents
ap FStack
Get Info
0810 9
Ġadd resses
Ch ange
Slot Event
........ ........
Ġbr in
Hidden Service
sup erencrypted
atom ic
A ppend
C C
I VE
p wn
Ġb ro
AT SC
11 58
Ġf it
to ke
to wc
Ġd rop
805 21
805 23
oper ation
08048 29
08048 394
mu lt
ra gment
ld ap
ĠT HEN
ĠA LL
Log ical
comp leted
Ġac tiv
ĠW AL
Ġtest ing
Ġaddress map
ĠIn put
Ġcor rupted
Ġro l
WaitFor SlotEvent
12345678901234567890 12345678901234567890
Ġpmu ldq
ĠSpec ify
pwn am
8 084
R ECT
n F
p key
u i
ca cc
Ġreturn s
Ġf u
it able
Ġ8 000
ce il
805 44
yp mod
Ġo s
Ġde coding
exp ire
Ġoption al
ĠQ Util
Count er
RA M
LA GS
prep end
ĠRelation Get
ĠGroup sock
Ġnocache getattr
ĠResource Owner
7 99
9 26
H S
I PT
V D
g ist
h ase
lo n
20 28
20 90
18 40
0807 08
un attached
Ġlong jmp
Ġstrc spn
vi o
Ġz one
ĠO UT
ĠpiStack Y
Ġfind ing
Ġchannel padding
pri mary
080726 12
080750 27
Man ager
verti sed
+ %
8 31
9 15
9 73
L T
S cript
f x
n C
y ytext
Ġp close
ed ac
Ġ" __
Ġ' |'
0807 15
ĠC REATE
27 50
en ch
ĠS how
Ġde v
ok ed
Ġstrn len
Ġge trlimit
019 0
ĠLog Error
stro ngest
0816 3
post master
8000000 2
device s
bound s
ĠXLogRegister Buffer
thing y
Ġlook ing
Ġchang ing
8 13
9 77
B AS
D ump
H elp
M atch
e et
p vStack
Ġi ss
nt hs
ĠF ield
Ġ1 2
AT URE
20 18
Ġs w
ser ialize
Ġat tach
ĠE xit
ld b
su ms
bd ae
Ġis w
69 2
dir parse
ĠD S
Ġor igin
dest ination
el low
ĠCurrent ResourceOwner
Ġcheck ing
Ġsys info
080647 5
Lo cation
Decrypt Update
Ġgener ated
oken ize
ĠNo v
Col lation
Cle an
Ġunt okenize
apbStack Y
7 12
W rong
^ '
d U
f un
i um
i cally
n c
w av
z ed
Ġ signed
Ġ* :
in ner
10 94
int ern
Ġf ew
pp dVar
to String
Ġs cript
al lowed
Ġd rive
0808 36
Ġl arger
ĠC pp
000 67
Ġin f
ĠauStack Y
es cape
Ġse lf
08052 08
ĠM B
08068 489
08062 08
ase s
ĠLog ical
08076 11
Ġau g
rop y
fix ture
Ġes ac
stam pt
Ġtc setattr
080725 33
6 15
R ED
Ġ lower
08 0804
ĠF A
re try
Ġe very
Ġst orage
0805 148
Ġa vio
Ġd ropping
Ġco nt
0807 10
27 28
Ġin side
84 9
88 9
Ġlong er
0827 77
sec ure
PL C
0811 6
rel kind
Ġprogram s
080518 59
xfd ffffff
Mo dule
08094 1
Digest Init
Check OpMessageBuilder
080765 50
Ġro le
clo sed
Ġauto mat
Ġauthor ization
Ġrecogn ized
zshQ s
ĠCpp Unit
6 99
7 51
b ar
v fs
Ġp lease
Ġp red
Ġ1 3
or ed
Ġg lob
0808 76
000 44
mp eg
08049 18
un supported
805 38
Ġc rc
ĠCON N
66 66
key gen
db g
0827 73
95 60
Log in
0818 3
ĠR AND
ul ated
08073 128
Ġmatch ing
Ġbu g
Con flict
080647 33
Node s
080767 64
Ġad just
ĠPCR s
ĠInit ial
Tran sport
\'\'\'\' \'\'\'\'
stampt z
/ .
7 17
8 16
8 55
> '
P MT
S OCKS
Ġi notify
Ġ' >'
un its
Ġm edia
0813 87
Re ference
Ġr pc
Ġpro to
ĠD ropping
mit ted
Un load
Ġreg ular
CR IPT
ear ly
Ġany way
efa a
FOR M
Su pported
Ġsym bols
ĠWavpackGet Num
Ġsetting s
Li mit
ASS ED
COR RECT
ĠRun Object
Backend s
Sec ret
leve ldb
9 33
9 59
A ES
F ilter
N EL
S end
c u
d itional
m ut
o v
am ma
Ġe ngine
AT ION
20 64
Ġf tell
Ġv asprintf
Ġa verage
it al
0808 34
Ġin herit
un p
fe time
log d
0809 12
Ġde precated
dir common
ĠD o
ath er
Ġexit ing
pppp iStack
el m
pg rade
pre t
bed f
Ġident ify
Ġsyn crep
8 93
C ERT
Q h
T Y
c art
n This
p rivilege
ar se
re me
20 21
si t
Ġg l
Ġw ide
0807 57
805 94
04 2
ĠE L
and led
ĠB ad
0827 61
append mergeset
ir tual
Ex it
ĠI SO
find good
ĠapiStack Y
086 29
0811 1
ĠV oronoi
mb s
Qhull Facet
PI B
Ġimp ort
skip facet
NE ED
8 444
9 16
G ROUP
I B
M utex
P air
R eader
S cheduler
m m
s v
Ġ Statistics
Ġ ceil
sh utdown
base name
88 1
Ġh ere
ĠS u
08056 344
su bc
08057 70
07 9
Re move
0827 56
LO B
ĠV olume
080518 60
red uce
Test s
control ler
Int eger
XMP Files
Sign Update
080623 34
ĠDe launay
ĠCo mp
Ġec used
ĠLook up
Ġzsh lex
B lob
D ING
f resh
m v
r atio
r limits
s nd
s ome
t data
z xd
in coming
Ġre moved
ĠL ist
18 00
80 97
0807 55
0807 82
08049 17
par tial
805 69
set add
Ġ7 00
In Progress
su id
pro mpt
ject ing
08064 94
0812 60
Ġlist ener
Set ting
For bidden
tou ch
Ġper f
ĠMemoryContext Delete
UT F
Sign EncryptUpdate
socket s
Ġsub stream
Qhull Error
Digest EncryptUpdate
mov zxd
Decrypt DigestUpdate
Decrypt VerifyUpdate
